node {
  name: "global_step/Initializer/zeros"
  op: "Const"
  attr {
    key: "_class"
    value {
      list {
        s: "loc:@global_step"
      }
    }
  }
  attr {
    key: "_output_shapes"
    value {
      list {
        shape {
        }
      }
    }
  }
  attr {
    key: "dtype"
    value {
      type: DT_INT64
    }
  }
  attr {
    key: "value"
    value {
      tensor {
        dtype: DT_INT64
        tensor_shape {
        }
        int64_val: 0
      }
    }
  }
}
node {
  name: "global_step"
  op: "VarHandleOp"
  attr {
    key: "_class"
    value {
      list {
        s: "loc:@global_step"
      }
    }
  }
  attr {
    key: "_output_shapes"
    value {
      list {
        shape {
        }
      }
    }
  }
  attr {
    key: "allowed_devices"
    value {
      list {
      }
    }
  }
  attr {
    key: "container"
    value {
      s: ""
    }
  }
  attr {
    key: "dtype"
    value {
      type: DT_INT64
    }
  }
  attr {
    key: "shape"
    value {
      shape {
      }
    }
  }
  attr {
    key: "shared_name"
    value {
      s: "global_step"
    }
  }
}
node {
  name: "global_step/IsInitialized/VarIsInitializedOp"
  op: "VarIsInitializedOp"
  input: "global_step"
  attr {
    key: "_output_shapes"
    value {
      list {
        shape {
        }
      }
    }
  }
}
node {
  name: "global_step/Assign"
  op: "AssignVariableOp"
  input: "global_step"
  input: "global_step/Initializer/zeros"
  attr {
    key: "dtype"
    value {
      type: DT_INT64
    }
  }
  attr {
    key: "validate_shape"
    value {
      b: false
    }
  }
}
node {
  name: "global_step/Read/ReadVariableOp"
  op: "ReadVariableOp"
  input: "global_step"
  attr {
    key: "_output_shapes"
    value {
      list {
        shape {
        }
      }
    }
  }
  attr {
    key: "dtype"
    value {
      type: DT_INT64
    }
  }
}
node {
  name: "global_step/VarIsInitializedOp"
  op: "VarIsInitializedOp"
  input: "global_step"
  attr {
    key: "_output_shapes"
    value {
      list {
        shape {
        }
      }
    }
  }
}
node {
  name: "global_step/cond"
  op: "If"
  input: "global_step/VarIsInitializedOp"
  input: "global_step"
  input: "global_step/Initializer/zeros"
  attr {
    key: "Tcond"
    value {
      type: DT_BOOL
    }
  }
  attr {
    key: "Tin"
    value {
      list {
        type: DT_RESOURCE
        type: DT_INT64
      }
    }
  }
  attr {
    key: "Tout"
    value {
      list {
        type: DT_INT64
      }
    }
  }
  attr {
    key: "_lower_using_switch_merge"
    value {
      b: true
    }
  }
  attr {
    key: "_output_shapes"
    value {
      list {
        shape {
        }
      }
    }
  }
  attr {
    key: "_read_only_resource_inputs"
    value {
      list {
        i: 1
      }
    }
  }
  attr {
    key: "else_branch"
    value {
      func {
        name: "global_step_cond_false_7"
      }
    }
  }
  attr {
    key: "output_shapes"
    value {
      list {
        shape {
        }
      }
    }
  }
  attr {
    key: "then_branch"
    value {
      func {
        name: "global_step_cond_true_6"
      }
    }
  }
}
node {
  name: "global_step/cond/Identity"
  op: "Identity"
  input: "global_step/cond"
  attr {
    key: "T"
    value {
      type: DT_INT64
    }
  }
  attr {
    key: "_output_shapes"
    value {
      list {
        shape {
        }
      }
    }
  }
}
node {
  name: "global_step/add/y"
  op: "Const"
  attr {
    key: "_output_shapes"
    value {
      list {
        shape {
        }
      }
    }
  }
  attr {
    key: "dtype"
    value {
      type: DT_INT64
    }
  }
  attr {
    key: "value"
    value {
      tensor {
        dtype: DT_INT64
        tensor_shape {
        }
        int64_val: 0
      }
    }
  }
}
node {
  name: "global_step/add"
  op: "AddV2"
  input: "global_step/cond/Identity"
  input: "global_step/add/y"
  attr {
    key: "T"
    value {
      type: DT_INT64
    }
  }
  attr {
    key: "_output_shapes"
    value {
      list {
        shape {
        }
      }
    }
  }
}
node {
  name: "normalize_element/component_0"
  op: "Const"
  device: "/device:CPU:0"
  attr {
    key: "_output_shapes"
    value {
      list {
        shape {
          dim {
            size: 1087
          }
        }
      }
    }
  }
  attr {
    key: "dtype"
    value {
      type: DT_DOUBLE
    }
  }
  attr {
    key: "value"
    value {
      tensor {
        dtype: DT_DOUBLE
        tensor_shape {
          dim {
            size: 1087
          }
        }
        tensor_content: "\367p\355z<\010\000@\252y\203\355\301}\313\277\325\327\232\262F\224\331\277Ue\207\220\371~\337\277\325\327\232\262F\224\331\277.\220\227\264E\260\006@UJ\256\324\223\251\323\277\304\027v\327\320/\365\277\252y\203\355\301}\313\277~\033\212\256\263\227\236\277\317wi\317r\240\373?\242hK\177\365b\n@r\236Gk\264\300\343?\271\315\034\204\342\224\353\277\337\274Tc\270P\277\277Ue\207\220\371~\337\277\247\r\370\250l0\367?\350\306\001:\023;\364?\271\315\034\204\342\224\353\277e\224\311<P\301\325?\201\271 \'\032\226\357?\304\027v\327\320/\365\277\201\271 \'\032\226\357?\234\255\004\261\312\277\360\277\004\321\177hw:\362\277H\352|\361\277\265\365?\325\327\232\262F\224\331\277Ue\207\220\371~\337\277UJ\256\324\223\251\323\277/\233\344\206\037\033\375?Ue\207\220\371~\337\277\252y\203\355\301}\313\277[\224h2\351\202\001@\004\321\177hw:\362\277j\37197\326\264\342\2779@0\246/\252\345\277gT\356\027\306%\372?\371\206&\025\211\237\350\277Ue\207\220\371~\337\277Ue\207\220\371~\337\277~\033\212\256\263\227\236\277y\024\023\363;\212\356\277\200\243\206\202f\300\362?j\37197\326\264\342\277\004\321\177hw:\362\277y\024\023\363;\212\356\277\301r*\270\300\240\354?\271\315\034\204\342\224\353\277\301r*\270\300\240\354?\325\327\232\262F\224\331\277\262WQ\374Z\313\340?y\024\023\363;\212\356\277\271\315\034\204\342\224\353\277\337\274Tc\270P\277\2779@0\246/\252\345\277\262WQ\374Z\313\340?r\236Gk\264\300\343?\004\321\177hw:\362\277\247\r\370\250l0\367?\247\002\253\326\222\305\000@\217\276_>\314\225\376?\271\315\034\204\342\224\353\277\004\321\177hw:\362\277\234\255\004\261\312\277\360\277\350\306\001:\023;\364?\220f\362GA\304\342?\217\276_>\314\225\376?\262WQ\374Z\313\340? \257\017\214\336\004\260?j\37197\326\264\342\277j\37197\326\264\342\277\001,4Ig\253\351? \257\017\214\336\004\260?\271\315\034\204\342\224\353\277\337\274Tc\270P\277\277UJ\256\324\223\251\323\277\325\327\232\262F\224\331\277 \257\017\214\336\004\260?\234\255\004\261\312\277\360\277\273\267\343\351\225\375\002@\371\206&\025\211\237\350\277gT\356\027\306%\372?\262WQ\374Z\313\340?r\236Gk\264\300\343?\001,4Ig\253\351?\345!\266\032\003\254\333?d\364\372\037$\265\363\277\004\321\177hw:\362\277\234\255\004\261\312\277\360\277\217\276_>\314\225\376?\345!\266\032\003\254\333? \257\017\214\336\004\260?\201\271 \'\032\226\357?/\233\344\206\037\033\375?2\345=\332\r\266\346?\345!\266\032\003\254\333?\220\362\340\001\325\327\303?\217\276_>\314\225\376?\217\r\272\275:\255\317?\217\276_>\314\225\376?2\345=\332\r\266\346? \257\017\214\336\004\260?\345!\266\032\003\254\333?\262WQ\374Z\313\340?gT\356\027\306%\372?\304\027v\327\320/\365\277\200\243\206\202f\300\362?9@0\246/\252\345\2772\345=\332\r\266\346?\337\274Tc\270P\277\277Ue\207\220\371~\337\277\001,4Ig\253\351?\234\255\004\261\312\277\360\277\004\321\177hw:\362\277y\024\023\363;\212\356\277y\024\023\363;\212\356\277j\37197\326\264\342\277 \200\013\313\271E\361?~\033\212\256\263\227\236\277\304\027v\327\320/\365\277~\033\212\256\263\227\236\277\252y\203\355\301}\313\277y\024\023\363;\212\356\277UJ\256\324\223\251\323\277j\37197\326\264\342\277y\024\023\363;\212\356\277\234\255\004\261\312\277\360\277e\224\311<P\301\325?\304\027v\327\320/\365\277Ue\207\220\371~\337\277\325\327\232\262F\224\331\277j\37197\326\264\342\277kI\241E\354\272\003@\337\274Tc\270P\277\277\301r*\270\300\240\354?2\345=\332\r\266\346?e\224\311<P\301\325?y\024\023\363;\212\356\277\252y\203\355\301}\313\277\0071s`\031\253\370?\304\027v\327\320/\365\277y\024\023\363;\212\356\277\201\271 \'\032\226\357?\004\321\177hw:\362\277UJ\256\324\223\251\323\2779@0\246/\252\345\277j\37197\326\264\342\2779@0\246/\252\345\277\371\206&\025\211\237\350\277\247\r\370\250l0\367?Ue\207\220\371~\337\277\247\r\370\250l0\367?j\37197\326\264\342\277j\37197\326\264\342\277e\224\311<P\301\325?e\224\311<P\301\325? \257\017\214\336\004\260?2\345=\332\r\266\346?\217\276_>\314\225\376?\217\276_>\314\225\376?\371\206&\025\211\237\350\277\371\206&\025\211\237\350\277y\024\023\363;\212\356\277j\37197\326\264\342\277\247\r\370\250l0\367?\234\255\004\261\312\277\360\277\217\r\272\275:\255\317?\201\271 \'\032\226\357?\004\321\177hw:\362\277\004\321\177hw:\362\277\262WQ\374Z\313\340?\247\r\370\250l0\367?y\024\023\363;\212\356\277\004\321\177hw:\362\277\353\201\347\375\326\237\371\277e\224\311<P\301\325?\217\r\272\275:\255\317?\217\276_>\314\225\376?Ue\207\220\371~\337\277\301r*\270\300\240\354?\220\362\340\001\325\327\303?y\024\023\363;\212\356\277Ue\207\220\371~\337\277\262WQ\374Z\313\340?\200\243\206\202f\300\362?UJ\256\324\223\251\323\2772\345=\332\r\266\346?e\224\311<P\301\325?\252y\203\355\301}\313\277\252y\203\355\301}\313\277\001,4Ig\253\351?Ue\207\220\371~\337\277\325\327\232\262F\224\331\277~\033\212\256\263\227\236\277\345!\266\032\003\254\333?\304\027v\327\320/\365\277\217\r\272\275:\255\317?\247\r\370\250l0\367? \257\017\214\336\004\260?\371\206&\025\211\237\350\277\247\r\370\250l0\367?\337\274Tc\270P\277\277y\024\023\363;\212\356\277\367p\355z<\010\000@2\345=\332\r\266\346?y\024\023\363;\212\356\277UJ\256\324\223\251\323\277[\224h2\351\202\001@\325\327\232\262F\224\331\277j\37197\326\264\342\277\247\002\253\326\222\305\000@\0071s`\031\253\370?\301r*\270\300\240\354?[\224h2\351\202\001@2\345=\332\r\266\346?j\37197\326\264\342\277\271\315\034\204\342\224\353\277H\352|\361\277\265\365?\271\315\034\204\342\224\353\277~\033\212\256\263\227\236\277\371\206&\025\211\237\350\277/\233\344\206\037\033\375?\336!U\020\234m\007@\004\321\177hw:\362\277~\033\212\256\263\227\236\277\325\327\232\262F\224\331\277\371\206&\025\211\237\350\277j\37197\326\264\342\277e\224\311<P\301\325?\271\315\034\204\342\224\353\2779@0\246/\252\345\277\325\327\232\262F\224\331\277\325\327\232\262F\224\331\2772\345=\332\r\266\346?y\024\023\363;\212\356\277\271\315\034\204\342\224\353\277\177\376\331X\357\362\005@2\345=\332\r\266\346?\350\306\001:\023;\364?\247\002\253\326\222\305\000@\001,4Ig\253\351?\004\321\177hw:\362\2772\345=\332\r\266\346?\271\315\034\204\342\224\353\277 \257\017\214\336\004\260?\301r*\270\300\240\354?\217\r\272\275:\255\317?gT\356\027\306%\372?\247\r\370\250l0\367?\271\315\034\204\342\224\353\277 \257\017\214\336\004\260?~\033\212\256\263\227\236\277\234\255\004\261\312\277\360\277\220\362\340\001\325\327\303?\271\315\034\204\342\224\353\2779@0\246/\252\345\277\004\321\177hw:\362\277\350\306\001:\023;\364?\226\356\3709\374\233\351\277\301r*\270\300\240\354?j\37197\326\264\342\277\001,4Ig\253\351?j\37197\326\264\342\277UJ\256\324\223\251\323\277\201\271 \'\032\226\357?r\236Gk\264\300\343?y\024\023\363;\212\356\277r\236Gk\264\300\343?\271\315\034\204\342\224\353\277j\37197\326\264\342\277\325\327\232\262F\224\331\277\262WQ\374Z\313\340?9@0\246/\252\345\277e\224\311<P\301\325?\001,4Ig\253\351?Ue\207\220\371~\337\277\262WQ\374Z\313\340?UJ\256\324\223\251\323\277\317wi\317r\240\373?y\024\023\363;\212\356\277e\224\311<P\301\325?9@0\246/\252\345\277[\312\350GD\332\273?9@0\246/\252\345\277\271\315\034\204\342\224\353\277y\024\023\363;\212\356\2779@0\246/\252\345\277y\024\023\363;\212\356\277y\024\023\363;\212\356\277\345!\266\032\003\254\333?y\024\023\363;\212\356\277\337\274Tc\270P\277\277j\37197\326\264\342\277j\37197\326\264\342\277y\024\023\363;\212\356\277 \200\013\313\271E\361?UJ\256\324\223\251\323\277\271\315\034\204\342\224\353\277j\37197\326\264\342\277\004\321\177hw:\362\2772\345=\332\r\266\346?\234\255\004\261\312\277\360\277j\37197\326\264\342\277\262WQ\374Z\313\340?\271\315\034\204\342\224\353\277j\37197\326\264\342\277\325\327\232\262F\224\331\277j\37197\326\264\342\277e\224\311<P\301\325?\217\276_>\314\225\376?\345!\266\032\003\254\333?\252y\203\355\301}\313\277Ue\207\220\371~\337\2779@0\246/\252\345\277\234\255\004\261\312\277\360\277\271\315\034\204\342\224\353\277j\37197\326\264\342\277j\37197\326\264\342\277H\352|\361\277\265\365?e\224\311<P\301\325?\004\321\177hw:\362\277\350\306\001:\023;\364?\247\r\370\250l0\367?\262WQ\374Z\313\340?9@0\246/\252\345\277\371\206&\025\211\237\350\277\234\255\004\261\312\277\360\277H\352|\361\277\265\365?\201\271 \'\032\226\357?y\024\023\363;\212\356\277r\236Gk\264\300\343?\234\255\004\261\312\277\360\277 \257\017\214\336\004\260?\0071s`\031\253\370?Ue\207\220\371~\337\277gT\356\027\306%\372?gT\356\027\306%\372?\271\315\034\204\342\224\353\277y\024\023\363;\212\356\277\325\327\232\262F\224\331\2779@0\246/\252\345\277\337\274Tc\270P\277\277\234\255\004\261\312\277\360\277~\033\212\256\263\227\236\277\371\206&\025\211\237\350\277\325\327\232\262F\224\331\277\234\255\004\261\312\277\360\277\371\206&\025\211\237\350\277gT\356\027\306%\372?j\37197\326\264\342\277H\352|\361\277\265\365?UJ\256\324\223\251\323\277\200\243\206\202f\300\362?\345!\266\032\003\254\333? \200\013\313\271E\361?\247\r\370\250l0\367?UJ\256\324\223\251\323\277[\224h2\351\202\001@UJ\256\324\223\251\323\277[\224h2\351\202\001@\371\206&\025\211\237\350\277\217\276_>\314\225\376?Ue\207\220\371~\337\277\350\306\001:\023;\364?\345!\266\032\003\254\333?\337\274Tc\270P\277\277d\364\372\037$\265\363\2772\345=\332\r\266\346?\217\r\272\275:\255\317?\004\321\177hw:\362\277 \257\017\214\336\004\260?e\224\311<P\301\325?j\37197\326\264\342\277\234\255\004\261\312\277\360\277\271\315\034\204\342\224\353\277\337\274Tc\270P\277\277j\37197\326\264\342\277~\033\212\256\263\227\236\277y\024\023\363;\212\356\277\271\315\034\204\342\224\353\277y\024\023\363;\212\356\277\271\315\034\204\342\224\353\277\271\315\034\204\342\224\353\277\325\327\232\262F\224\331\277\325\327\232\262F\224\331\277r\236Gk\264\300\343?\325\327\232\262F\224\331\277UJ\256\324\223\251\323\277\271\315\034\204\342\224\353\277\304\027v\327\320/\365\277\252y\203\355\301}\313\277e\224\311<P\301\325?\262WQ\374Z\313\340? \257\017\214\336\004\260?9@0\246/\252\345\277\252y\203\355\301}\313\277\350\306\001:\023;\364?\217\r\272\275:\255\317?\271\315\034\204\342\224\353\277\0071s`\031\253\370?\217\r\272\275:\255\317?\234\255\004\261\312\277\360\277y\024\023\363;\212\356\277\220\362\340\001\325\327\303?\220\362\340\001\325\327\303?y\024\023\363;\212\356\277\004\321\177hw:\362\277\220\362\340\001\325\327\303? \200\013\313\271E\361?\004\321\177hw:\362\277H\352|\361\277\265\365?\271\315\034\204\342\224\353\277d\364\372\037$\265\363\277 \257\017\214\336\004\260?y\024\023\363;\212\356\277\252y\203\355\301}\313\277\271\315\034\204\342\224\353\277\353\201\347\375\326\237\371\277\336!U\020\234m\007@y\024\023\363;\212\356\277j\37197\326\264\342\277UJ\256\324\223\251\323\277y\024\023\363;\212\356\277\337\274Tc\270P\277\277\226M\323\315\366\313\322?\033\333^\241Bx\004@gT\356\027\306%\372?\001,4Ig\253\351?\001,4Ig\253\351? \200\013\313\271E\361?\271\315\034\204\342\224\353\277\0071s`\031\253\370?y\024\023\363;\212\356\277gT\356\027\306%\372?\371\206&\025\211\237\350\277\350\306\001:\023;\364?d\364\372\037$\265\363\277\336!U\020\234m\007@\301r*\270\300\240\354?\371\206&\025\211\237\350\277r\236Gk\264\300\343?\301r*\270\300\240\354?UJ\256\324\223\251\323\277\234\255\004\261\312\277\360\277\004\321\177hw:\362\277\004\321\177hw:\362\277\220\362\340\001\325\327\303?\317wi\317r\240\373?j\37197\326\264\342\277\325\327\232\262F\224\331\277\217\276_>\314\225\376?y\024\023\363;\212\356\277y\024\023\363;\212\356\277y\024\023\363;\212\356\277\345!\266\032\003\254\333?\234\255\004\261\312\277\360\277e\224\311<P\301\325?\345!\266\032\003\254\333?UJ\256\324\223\251\323\277\304\027v\327\320/\365\277\200\243\206\202f\300\362?\337\274Tc\270P\277\277y\024\023\363;\212\356\277 \200\013\313\271E\361?\350\306\001:\023;\364? \257\017\214\336\004\260?e\224\311<P\301\325?\242hK\177\365b\n@r\236Gk\264\300\343?\371\206&\025\211\237\350\277\350\306\001:\023;\364?\004\321\177hw:\362\277\345!\266\032\003\254\333?\262WQ\374Z\313\340? \200\013\313\271E\361?y\024\023\363;\212\356\277\234\255\004\261\312\277\360\277P?\302\014!}\361\277\271\315\034\204\342\224\353\277j\37197\326\264\342\277\325\327\232\262F\224\331\277\013&&\216?@\002@\271\315\034\204\342\224\353\277\345!\266\032\003\254\333?Ue\207\220\371~\337\277y\024\023\363;\212\356\277\013\354X$\335\017\376\277\271\315\034\204\342\224\353\277~\033\212\256\263\227\236\277\004\321\177hw:\362\277\217\r\272\275:\255\317?j\37197\326\264\342\277\252y\203\355\301}\313\277\004\321\177hw:\362\277\271\315\034\204\342\224\353\277\220\362\340\001\325\327\303?\004\321\177hw:\362\277\371\206&\025\211\237\350\277\234\255\004\261\312\277\360\277Ue\207\220\371~\337\277\013&&\216?@\002@\220\362\340\001\325\327\303?\345!\266\032\003\254\333?\234\255\004\261\312\277\360\277\325\327\232\262F\224\331\277y\024\023\363;\212\356\277\200\243\206\202f\300\362?~\033\212\256\263\227\236\277\364{:M\026s\366?\371\206&\025\211\237\350\277\200\243\206\202f\300\362?\004\321\177hw:\362\277\220\362\340\001\325\327\303?\234\255\004\261\312\277\360\277d\364\372\037$\265\363\277r\236Gk\264\300\343?/\233\344\206\037\033\375?j\37197\326\264\342\277\301r*\270\300\240\354?d\364\372\037$\265\363\277\252y\203\355\301}\313\277\325\327\232\262F\224\331\277\345!\266\032\003\254\333?\271\315\034\204\342\224\353\277\304\027v\327\320/\365\277d\364\372\037$\265\363\277\262WQ\374Z\313\340?\371\206&\025\211\237\350\277r\236Gk\264\300\343?9@0\246/\252\345\277j\37197\326\264\342\277j\37197\326\264\342\277\004\321\177hw:\362\277\234\255\004\261\312\277\360\277\252y\203\355\301}\313\277\234\255\004\261\312\277\360\277\247\r\370\250l0\367?UJ\256\324\223\251\323\277 \257\017\214\336\004\260?kI\241E\354\272\003@\325\327\232\262F\224\331\277\004\321\177hw:\362\277 \257\017\214\336\004\260?y\024\023\363;\212\356\277\220\362\340\001\325\327\303?9@0\246/\252\345\277\247\r\370\250l0\367?r\236Gk\264\300\343?2\345=\332\r\266\346?\271\315\034\204\342\224\353\277\013&&\216?@\002@j\37197\326\264\342\277\271\315\034\204\342\224\353\277r\236Gk\264\300\343?~\033\212\256\263\227\236\277Ue\207\220\371~\337\277H\352|\361\277\265\365?j\37197\326\264\342\2779@0\246/\252\345\277\345!\266\032\003\254\333?2\345=\332\r\266\346?d\364\372\037$\265\363\277\271\315\034\204\342\224\353\277\271\315\034\204\342\224\353\277\345!\266\032\003\254\333?\301r*\270\300\240\354?2\345=\332\r\266\346?\001,4Ig\253\351?\301r*\270\300\240\354?y\024\023\363;\212\356\277\001,4Ig\253\351?\0071s`\031\253\370?\013&&\216?@\002@\367p\355z<\010\000@y\024\023\363;\212\356\277\371\206&\025\211\237\350\277\271\315\034\204\342\224\353\277/\233\344\206\037\033\375?\243\036\221!\240\211\334\277\201\271 \'\032\226\357?j\37197\326\264\342\277\371\206&\025\211\237\350\277\350\306\001:\023;\364?\346\323\177G\177.\007@ \257\017\214\336\004\260?\345!\266\032\003\254\333?\371\206&\025\211\237\350\277y\024\023\363;\212\356\277\262WQ\374Z\313\340?\220\362\340\001\325\327\303?\271\315\034\204\342\224\353\277/\233\344\206\037\033\375?\371\206&\025\211\237\350\277\220\362\340\001\325\327\303? \257\017\214\336\004\260?y\024\023\363;\212\356\277H\352|\361\277\265\365?d\364\372\037$\265\363\277y\024\023\363;\212\356\277 \257\017\214\336\004\260?\350\306\001:\023;\364?y\024\023\363;\212\356\277UJ\256\324\223\251\323\277~\033\212\256\263\227\236\277\301r*\270\300\240\354?\004\321\177hw:\362\277y\024\023\363;\212\356\277\345!\266\032\003\254\333?\271\315\034\204\342\224\353\277\004\321\177hw:\362\277\271\315\034\204\342\224\353\277\271\315\034\204\342\224\353\277\345!\266\032\003\254\333?9@0\246/\252\345\277y\024\023\363;\212\356\2779@0\246/\252\345\277\304\027v\327\320/\365\277\004\321\177hw:\362\277[\224h2\351\202\001@\262WQ\374Z\313\340?Ue\207\220\371~\337\277\350\306\001:\023;\364?\252y\203\355\301}\313\277 \257\017\214\336\004\260?2\345=\332\r\266\346?\271\315\034\204\342\224\353\277d\364\372\037$\265\363\277r\236Gk\264\300\343?\336!U\020\234m\007@\337\274Tc\270P\277\277\004\321\177hw:\362\277y\024\023\363;\212\356\277\271\315\034\204\342\224\353\277\252y\203\355\301}\313\2779@0\246/\252\345\277\001,4Ig\253\351?y\024\023\363;\212\356\277 \257\017\214\336\004\260?\325\327\232\262F\224\331\277\217\r\272\275:\255\317?d\364\372\037$\265\363\277j\37197\326\264\342\277j\37197\326\264\342\277e\224\311<P\301\325? \257\017\214\336\004\260?\371\206&\025\211\237\350\277\201\271 \'\032\226\357?\004\321\177hw:\362\277\234\255\004\261\312\277\360\277\004\321\177hw:\362\277\200\243\206\202f\300\362?Ue\207\220\371~\337\277 \257\017\214\336\004\260?\004\321\177hw:\362\277e\224\311<P\301\325?\234\255\004\261\312\277\360\277\271\315\034\204\342\224\353\277Ue\207\220\371~\337\277j\37197\326\264\342\277y\024\023\363;\212\356\277\220\362\340\001\325\327\303?\345!\266\032\003\254\333?e\224\311<P\301\325?\350\306\001:\023;\364?\271\315\034\204\342\224\353\277\271\315\034\204\342\224\353\277e\224\311<P\301\325?\234\255\004\261\312\277\360\277 \257\017\214\336\004\260?Ue\207\220\371~\337\277\325\327\232\262F\224\331\277~\033\212\256\263\227\236\2779@0\246/\252\345\277\001,4Ig\253\351?\271\315\034\204\342\224\353\2772\345=\332\r\266\346?9@0\246/\252\345\277\325\327\232\262F\224\331\277\271\315\034\204\342\224\353\277\325\327\232\262F\224\331\277\177\376\331X\357\362\005@\317wi\317r\240\373?\234\255\004\261\312\277\360\277r\236Gk\264\300\343?j\37197\326\264\342\277\273\267\343\351\225\375\002@\262WQ\374Z\313\340?\200\243\206\202f\300\362?~\033\212\256\263\227\236\277j\37197\326\264\342\277\004\321\177hw:\362\277Ue\207\220\371~\337\277\201\271 \'\032\226\357?[\224h2\351\202\001@j\37197\326\264\342\277\262WQ\374Z\313\340?\337\274Tc\270P\277\277\201\271 \'\032\226\357?y\024\023\363;\212\356\277~\033\212\256\263\227\236\277\004\321\177hw:\362\277\252y\203\355\301}\313\277 \257\017\214\336\004\260?\325\327\232\262F\224\331\2779@0\246/\252\345\277\301r*\270\300\240\354?\252y\203\355\301}\313\277y\024\023\363;\212\356\277\325\327\232\262F\224\331\277\367p\355z<\010\000@y\024\023\363;\212\356\277\301r*\270\300\240\354?~\033\212\256\263\227\236\277UJ\256\324\223\251\323\277y\024\023\363;\212\356\277\271\315\034\204\342\224\353\277\200\243\206\202f\300\362?\301r*\270\300\240\354?\325\327\232\262F\224\331\2779@0\246/\252\345\277\201\271 \'\032\226\357?\247\002\253\326\222\305\000@\271\315\034\204\342\224\353\277\252y\203\355\301}\313\277\304\027v\327\320/\365\277\271\315\034\204\342\224\353\2772\345=\332\r\266\346? \200\013\313\271E\361? \257\017\214\336\004\260?\013\354X$\335\017\376\277\271\315\034\204\342\224\353\277UJ\256\324\223\251\323\277\317l\034\375\2305\005@\234\255\004\261\312\277\360\277\271\315\034\204\342\224\353\277UJ\256\324\223\251\323\277\217\r\272\275:\255\317?\273\267\343\351\225\375\002@\004\321\177hw:\362\277\345!\266\032\003\254\333?\271\315\034\204\342\224\353\277\325\327\232\262F\224\331\277\271\315\034\204\342\224\353\277\317wi\317r\240\373?\271\315\034\204\342\224\353\277j\37197\326\264\342\277r\236Gk\264\300\343?/\233\344\206\037\033\375?2\345=\332\r\266\346?\247\002\253\326\222\305\000@\004\321\177hw:\362\277e\224\311<P\301\325?\004\321\177hw:\362\277\252y\203\355\301}\313\277\201\271 \'\032\226\357?e\224\311<P\301\325?y\024\023\363;\212\356\277\201\271 \'\032\226\357?\325\327\232\262F\224\331\277\337\274Tc\270P\277\277~\033\212\256\263\227\236\277\252y\203\355\301}\313\277\271\315\034\204\342\224\353\277\325\327\232\262F\224\331\277Ue\207\220\371~\337\277y\024\023\363;\212\356\277\004\321\177hw:\362\277~\033\212\256\263\227\236\277~\033\212\256\263\227\236\277\252y\203\355\301}\313\277\252y\203\355\301}\313\277\271\315\034\204\342\224\353\277\337\274Tc\270P\277\277d\364\372\037$\265\363\277\262WQ\374Z\313\340?\271\315\034\204\342\224\353\277\217\r\272\275:\255\317?\371\206&\025\211\237\350\277 \257\017\214\336\004\260?\350\306\001:\023;\364?9@0\246/\252\345\2779@0\246/\252\345\277j\37197\326\264\342\277Ue\207\220\371~\337\277\252y\203\355\301}\313\277\253\310\335l0\225\374\277\201\271 \'\032\226\357?\317wi\317r\240\373?\252y\203\355\301}\313\277\301r*\270\300\240\354?Ue\207\220\371~\337\277H\352|\361\277\265\365?\004\321\177hw:\362\277\271\315\034\204\342\224\353\277 \257\017\214\336\004\260?\200\243\206\202f\300\362?\325\327\232\262F\224\331\277e\224\311<P\301\325? \257\017\214\336\004\260?e\224\311<P\301\325?\004\321\177hw:\362\277\242hK\177\365b\n@\350\306\001:\023;\364?\247\r\370\250l0\367?r\236Gk\264\300\343?j\37197\326\264\342\277\350\306\001:\023;\364?UJ\256\324\223\251\323\277UJ\256\324\223\251\323\277\004\321\177hw:\362\277\317wi\317r\240\373?\371\206&\025\211\237\350\277\371\206&\025\211\237\350\277\301r*\270\300\240\354?\262WQ\374Z\313\340?\234\255\004\261\312\277\360\277\262WQ\374Z\313\340?\217\r\272\275:\255\317?\371\206&\025\211\237\350\277\304\027v\327\320/\365\277\001,4Ig\253\351?\234\255\004\261\312\277\360\277\371\206&\025\211\237\350\277 \257\017\214\336\004\260?\271\315\034\204\342\224\353\277\271\315\034\204\342\224\353\277\201\271 \'\032\226\357?r\236Gk\264\300\343?\201\271 \'\032\226\357?\271\315\034\204\342\224\353\277\004\321\177hw:\362\277j\37197\326\264\342\277\247\r\370\250l0\367?y\024\023\363;\212\356\277y\024\023\363;\212\356\277\234\255\004\261\312\277\360\277\220\362\340\001\325\327\303?\371\206&\025\211\237\350\277\371\206&\025\211\237\350\277 \200\013\313\271E\361?\217\276_>\314\225\376?\252y\203\355\301}\313\277\262WQ\374Z\313\340?\004\321\177hw:\362\277\217\276_>\314\225\376? \257\017\214\336\004\260?[\312\350GD\332\273?\013&&\216?@\002@\234\255\004\261\312\277\360\277\201\271 \'\032\226\357?\271\315\034\204\342\224\353\277\350\306\001:\023;\364?\262WQ\374Z\313\340?\271\315\034\204\342\224\353\277\004\321\177hw:\362\277\262WQ\374Z\313\340?\234\255\004\261\312\277\360\277e\224\311<P\301\325?9@0\246/\252\345\277\325\327\232\262F\224\331\277\301r*\270\300\240\354?y\024\023\363;\212\356\277d\364\372\037$\265\363\277\350\306\001:\023;\364?\371\206&\025\211\237\350\277\220\362\340\001\325\327\303?H\352|\361\277\265\365? \257\017\214\336\004\260?\371\206&\025\211\237\350\277\337\274Tc\270P\277\277\262WQ\374Z\313\340?\337\274Tc\270P\277\277\013&&\216?@\002@\325\327\232\262F\224\331\2779@0\246/\252\345\277 \257\017\214\336\004\260?\271\315\034\204\342\224\353\277\273\267\343\351\225\375\002@e\224\311<P\301\325?UJ\256\324\223\251\323\277\271\315\034\204\342\224\353\277\262WQ\374Z\313\340?\234\255\004\261\312\277\360\277\201\271 \'\032\226\357?9@0\246/\252\345\277\271\315\034\204\342\224\353\277\301r*\270\300\240\354?\004\321\177hw:\362\2779@0\246/\252\345\277\271\315\034\204\342\224\353\277\234\255\004\261\312\277\360\277\317wi\317r\240\373?5\235\026\326=\274\361\277\325\327\232\262F\224\331\277\337\274Tc\270P\277\277/\233\344\206\037\033\375?\325\327\232\262F\224\331\277\371\206&\025\211\237\350\277\325\327\232\262F\224\331\277r\236Gk\264\300\343?[\224h2\351\202\001@y\024\023\363;\212\356\277\004\321\177hw:\362\2779@0\246/\252\345\277\337\274Tc\270P\277\277 \257\017\214\336\004\260?\304\027v\327\320/\365\277\371\206&\025\211\237\350\277\271\315\034\204\342\224\353\277~\033\212\256\263\227\236\277d\364\372\037$\265\363\277~\033\212\256\263\227\236\277\220\362\340\001\325\327\303?\345!\266\032\003\254\333?\001,4Ig\253\351?[\224h2\351\202\001@\325\327\232\262F\224\331\277\201\271 \'\032\226\357?j\37197\326\264\342\277\271\315\034\204\342\224\353\277\004\321\177hw:\362\277\001,4Ig\253\351?\013&&\216?@\002@UJ\256\324\223\251\323\277\371\206&\025\211\237\350\277e\224\311<P\301\325?\271\315\034\204\342\224\353\277\271\315\034\204\342\224\353\277\325\327\232\262F\224\331\277\325\327\232\262F\224\331\277y\024\023\363;\212\356\2779@0\246/\252\345\277\262WQ\374Z\313\340?2\345=\332\r\266\346?\371\206&\025\211\237\350\277\271\315\034\204\342\224\353\277\220\362\340\001\325\327\303? \257\017\214\336\004\260?\271\315\034\204\342\224\353\277H\352|\361\277\265\365?y\024\023\363;\212\356\277\234\255\004\261\312\277\360\277\271\315\034\204\342\224\353\2772\345=\332\r\266\346?Q\252\241\3145\032\352\277d\364\372\037$\265\363\277\271\315\034\204\342\224\353\277y\024\023\363;\212\356\277\217\r\272\275:\255\317?\350\306\001:\023;\364?\217\r\272\275:\255\317?\200\243\206\202f\300\362?y\024\023\363;\212\356\277\271\315\034\204\342\224\353\277\371\206&\025\211\237\350\277~\033\212\256\263\227\236\2772\345=\332\r\266\346?\217\r\272\275:\255\317?\345!\266\032\003\254\333?Ue\207\220\371~\337\277e\224\311<P\301\325?\247\r\370\250l0\367?\317wi\317r\240\373?\177\376\331X\357\362\005@9@0\246/\252\345\277\367p\355z<\010\000@\325\327\232\262F\224\331\277\271\315\034\204\342\224\353\277 \257\017\214\336\004\260?\325\327\232\262F\224\331\277\0071s`\031\253\370?\371\206&\025\211\237\350\277\371\206&\025\211\237\350\277\325\327\232\262F\224\331\2779@0\246/\252\345\277j\37197\326\264\342\277\262WQ\374Z\313\340?\234\255\004\261\312\277\360\277\201\271 \'\032\226\357?\201\271 \'\032\226\357?~\033\212\256\263\227\236\277\337\274Tc\270P\277\277[\224h2\351\202\001@\271\315\034\204\342\224\353\277/\233\344\206\037\033\375?\325\327\232\262F\224\331\277\271\315\034\204\342\224\353\277y\024\023\363;\212\356\277\262WQ\374Z\313\340?\252y\203\355\301}\313\277y\024\023\363;\212\356\277\004\321\177hw:\362\2772\345=\332\r\266\346?\304\027v\327\320/\365\277\020h\360k`\233\327\277\234\255\004\261\312\277\360\277 \257\017\214\336\004\260? \257\017\214\336\004\260?j\37197\326\264\342\277\345!\266\032\003\254\333?\217\r\272\275:\255\317?Ue\207\220\371~\337\277\325\327\232\262F\224\331\2772\345=\332\r\266\346?\271\315\034\204\342\224\353\277\262WQ\374Z\313\340?\371\206&\025\211\237\350\277\371\206&\025\211\237\350\277\004\321\177hw:\362\277Ue\207\220\371~\337\277j\37197\326\264\342\277e\224\311<P\301\325?\301r*\270\300\240\354?j\37197\326\264\342\277\001,4Ig\253\351?\271\315\034\204\342\224\353\277\252y\203\355\301}\313\277 \257\017\214\336\004\260?\234\255\004\261\312\277\360\277\220\362\340\001\325\327\303?\001,4Ig\253\351?e\224\311<P\301\325?\234\255\004\261\312\277\360\277\355\303z\\\177\205\020@\271\315\034\204\342\224\353\277\200\243\206\202f\300\362?\0071s`\031\253\370?gT\356\027\306%\372?9@0\246/\252\345\277\271\315\034\204\342\224\353\277\220\362\340\001\325\327\303?e\224\311<P\301\325?\304\027v\327\320/\365\277\247\002\253\326\222\305\000@2\345=\332\r\266\346?\262WQ\374Z\313\340?y\024\023\363;\212\356\277\004\321\177hw:\362\277y\024\023\363;\212\356\277y\024\023\363;\212\356\277\217\276_>\314\225\376?\252y\203\355\301}\313\277\271\315\034\204\342\224\353\277\301r*\270\300\240\354?\271\315\034\204\342\224\353\277\271\315\034\204\342\224\353\277UJ\256\324\223\251\323\277\0071s`\031\253\370?\325\327\232\262F\224\331\277\001,4Ig\253\351?Ue\207\220\371~\337\277\217\276_>\314\225\376?\001,4Ig\253\351?UJ\256\324\223\251\323\277UJ\256\324\223\251\323\277\337\274Tc\270P\277\277\242hK\177\365b\n@\242hK\177\365b\n@d\364\372\037$\265\363\277\200\243\206\202f\300\362?\345!\266\032\003\254\333? \257\017\214\336\004\260?y\024\023\363;\212\356\277\301r*\270\300\240\354?Q\252\241\3145\032\352\277UJ\256\324\223\251\323\2772\345=\332\r\266\346?UJ\256\324\223\251\323\2772\345=\332\r\266\346?9@0\246/\252\345\277d\364\372\037$\265\363\277\217\r\272\275:\255\317?/\233\344\206\037\033\375?\325\327\232\262F\224\331\277 \257\017\214\336\004\260?d\364\372\037$\265\363\277\013&&\216?@\002@\262WQ\374Z\313\340?~\033\212\256\263\227\236\277\217\r\272\275:\255\317?Ue\207\220\371~\337\277\004\321\177hw:\362\277 \257\017\214\336\004\260?j\37197\326\264\342\277\371\206&\025\211\237\350\277~\033\212\256\263\227\236\277\301r*\270\300\240\354?"
      }
    }
  }
}
node {
  name: "normalize_element/component_1"
  op: "Const"
  device: "/device:CPU:0"
  attr {
    key: "_output_shapes"
    value {
      list {
        shape {
          dim {
            size: 1087
          }
        }
      }
    }
  }
  attr {
    key: "dtype"
    value {
      type: DT_DOUBLE
    }
  }
  attr {
    key: "value"
    value {
      tensor {
        dtype: DT_DOUBLE
        tensor_shape {
          dim {
            size: 1087
          }
        }
        tensor_content: ">\021\013\250\310\027\332\277~\346.&\327-\327?\304\210\000\364\"c\265\277\260wHj\321@\312\277t3\013e\221p\317\277\372=\277P\274I\340\277p\004\371\253\3703\326\277\216\006\370\261U\"\375?\200\346\312\273\315h\363?!ol\245\250\257\334\277/\300\273\246\270c\333\277\010^\354FD\003\352\277\t^$r1y\302\277\234\367\346\257(P\322\277\222\325\251g\261\330\314\277\260wHj\321@\312\277/\300\273\246\270c\333\277o\225\337$\307y\330?\326;\264^\2164\314?\304\210\000\364\"c\265\277\315\031\347l\361\250\307\277\022\200\361c\316\004\307?\027\257;HT\267\350\277\315\031\347l\361\250\307\277*V\341\016\214O\227\277\304\210\000\364\"c\265\277\211D\303\356\342\222\272\277\306\352\234\210k\366\345?|\2062\215\243l\341?\021\021\330\334\234J\271?\373\2074\307s.\222?\377\314=\371b3\260\277O\223\340\036j\213\361\277p\004\371\253\3703\326\277\343\214;\213\213^\343?\260wHj\321@\312\277\231\367\256\204;\332\351?\234\367\346\257(P\322\277\353\273\205o\021\021\305\277\353\273\205o\021\021\305\277\211D\303\356\342\222\272\277\036p\330\270\251S\366?M\304.i\016\325\301?\\\263\251\252\350\177\327\277MbZ\251\330\313\330\277\205:\220\244r%%@\022\036\035\244\230\373\335\277M\000\206\351\242\302\277\277S\302VB\014\215\356\277LU\025\342\334\032\264?\017\037\211\267\231\237\367?\304\210\000\364\"c\265\277/\300\273\246\270c\333\277\211D\303\356\342\222\272\277\353\273\205o\021\021\305\277\326\314\232\327\\z\276?\177UH\255\010\350\324\277MbZ\251\330\313\330\277!ol\245\250\257\334\277\253H6\2618\004\321\277M\000\206\351\242\302\277\277\234\367\346\257(P\322\277\2768\263\036a\204d\277\201Y\325T4\264\036@/\300\273\246\270c\333\277\177UH\255\010\350\324\277?B\303\322\336\271\004@\\\263\251\252\350\177\327\277*V\341\016\214O\227\277\326\314\232\327\\z\276?\315\031\347l\361\250\307\277\253\331\034*\007J\323?s\225\027P\264\357\340\277\206\273\037\331\271v\243?\260wHj\321@\312\277LU\025\342\334\032\264?\222\325\251g\261\330\314\277\377\314=\371b3\260\277m5\343\213\223\270\342?\325;\354\211{\252\344?p\004\371\253\3703\326\277\177UH\255\010\350\324\277/\300\273\246\270c\333\277p\004\371\253\3703\326\277\217\006\224GL]\351\277MbZ\251\330\313\330\277\253H6\2618\004\321\277\t^$r1y\302\277\022\200\361c\316\004\307?\306\352\234\210k\366\345?6Q\332Jt\037\346\277\206\273\037\331\271v\243?\253\331\034*\007J\323?>\021\013\250\310\027\332\277!\240V\205C4\351?\201\265DF<\251\352\277\222\325\251g\261\330\314\277\352\273MD$\233\354\277\271*l+\027\376\321?\260wHj\321@\312\277\314J\321L\214-\344\277*V\341\016\214O\227\277\004/\332\215\253\306\340?\334\233 N\234\341\342\277\326\314\232\327\\z\276?\203\026\027\323\342f\004@\260wHj\321@\312\277M\000\206\351\242\302\277\277\373\2074\307s.\222?\372=\277P\274I\340\277\353\273\205o\021\021\305\277s\225\027P\264\357\340\277\372=\277P\274I\340\277~\346.&\327-\327?\003\315\315\242\210G\337\277q\225{\272\275\264\364?\t^$r1y\302\277\236\"\366\374E\007\246\277\353\354oO\254\225\341\277\t^$r1y\302\277M\000\206\351\242\302\277\277\260wHj\321@\312\277j\324B\264q\335\372?\253H6\2618\004\321\277\216\006\370\261U\"\375?\353\273\205o\021\021\305\277\314J\321L\214-\344\277\275\371\345\265\205>\371?{m\204X\241\016\033@Kc\306\274\331o\362?LU\025\342\334\032\264?\216\246\227\256\030\234\323\277t3\013e\221p\317\277M\304.i\016\325\301?\216\246\227\256\030\234\323\277\253H6\2618\004\321\277\373\2074\307s.\222?\0203\245\3169\326\255?p\004\371\253\3703\326\277\371\014\235E4O\353\277t3\013e\221p\317\277m5\343\213\223\270\342?\236\"\366\374E\007\246\277\025\257\237\262]|\374?\2768\263\036a\204d\277p\004\371\253\3703\326\277\315\031\347l\361\250\307\277\304\210\000\364\"c\265\277\353\273\205o\021\021\305\277\314J\321L\214-\344\277\304\210\000\364\"c\265\277\027\257;HT\267\350\277\211D\303\356\342\222\272\277t3\013e\221p\317\277\326\314\232\327\\z\276?\021\021\330\334\234J\271?p\004\371\253\3703\326\277!ol\245\250\257\334\277\'\000\213Idk\347\277\353\273\205o\021\021\305\277\373\2074\307s.\222?\206\273\037\331\271v\243?\022\200\361c\316\004\307?\222\325\251g\261\330\314\277\315\031\347l\361\250\307\277\216\246\227\256\030\234\323\277M\000\206\351\242\302\277\2776Q\332Jt\037\346\277\253H6\2618\004\321\277\364\335Ra\256\234\311?*V\341\016\214O\227\277\234\367\346\257(P\322\277\222\325\251g\261\330\314\277\206\273\037\331\271v\243?E\242)L\204\323\344\277p\004\371\253\3703\326\277M\000\206\351\242\302\277\277M\000\206\351\242\302\277\277\2157~\'\347\341\325?\253H6\2618\004\321\277!ol\245\250\257\334\277t3\013e\221p\317\277\211D\303\356\342\222\272\277t3\013e\221p\317\277|U\254\027\022\255\370\277\315\031\347l\361\250\307\277\022\036\035\244\230\373\335\277t3\013e\221p\317\277LU\025\342\334\032\264?\372=\277P\274I\340\277\216\246\227\256\030\234\323\277\216\246\227\256\030\234\323\277LU\025\342\334\032\264?\222\325\251g\261\330\314\277/\300\273\246\270c\333\277t3\013e\221p\317\277\021\021\330\334\234J\271?LU\025\342\334\032\264?\t^$r1y\302\277\t^$r1y\302\277\177UH\255\010\350\324\277MbZ\251\330\313\330\277\216\246\227\256\030\234\323\277\216\246\227\256\030\234\323\277\177UH\255\010\350\324\277\315\031\347l\361\250\307\277M\304.i\016\325\301?\260wHj\321@\312\277\275\371\345\265\205>\371?\260wHj\321@\312\277\377\314=\371b3\260\277\003\315\315\242\210G\337\277\234\367\346\257(P\322\277>\021\013\250\310\027\332\277!ol\245\250\257\334\277\253H6\2618\004\321\277\353\273\205o\021\021\305\277\256\2502Jl\305\346\277o\225\337$\307y\330?M\304.i\016\325\301?\260wHj\321@\312\277\216\246\227\256\030\234\323\277\371\014\235E4O\353\277\234\367\346\257(P\322\277\373\2074\307s.\222?\2768\263\036a\204d\277\234\367\346\257(P\322\277\2768\263\036a\204d\277\222\325\251g\261\330\314\277\304\210\000\364\"c\265\277\304\210\000\364\"c\265\277\211D\303\356\342\222\272\277\271*l+\027\376\321?\260wHj\321@\312\277MbZ\251\330\313\330\277\234\210\315(\367\225\324?\004/\332\215\253\306\340?T\363xM\224\207\343\277!ol\245\250\257\334\277p\004\371\253\3703\326\277M\304.i\016\325\301?\022\036\035\244\230\373\335\277\t^$r1y\302\277\021\021\330\334\234J\271?\377\314=\371b3\260\277\217\006\224GL]\351\277\2768\263\036a\204d\277M\000\206\351\242\302\277\277\234\367\346\257(P\322\277\2768\263\036a\204d\277s\225\027P\264\357\340\277\377\314=\371b3\260\277\007F\021\313\000X\014@T\363xM\224\207\343\277t3\013e\221p\317\277M\304.i\016\325\301?p\004\371\253\3703\326\277\353\354oO\254\225\341\277\326\314\232\327\\z\276?\\\263\251\252\350\177\327\277\353\273\205o\021\021\305\277\2157~\'\347\341\325?\260wHj\321@\312\277/\"\220f\356l\304?6Q\332Jt\037\346\277>\021\013\250\310\027\332\277t3\013e\221p\317\277\211D\303\356\342\222\272\277*V\341\016\214O\227\277LU\025\342\334\032\264?\022\036\035\244\230\373\335\277\353\273\205o\021\021\305\277\022\036\035\244\230\373\335\277\260wHj\321@\312\277\343\214;\213\213^\343?\304\210\000\364\"c\265\277\234\210\315(\367\225\324?\373\2074\307s.\222?s\225\027P\264\357\340\277\211D\303\356\342\222\272\277m5\343\213\223\270\342?\253H6\2618\004\321\277\022\036\035\244\230\373\335\277\003\315\315\242\210G\337\277\216\246\227\256\030\234\323\277\353\273\205o\021\021\305\277\206\273\037\331\271v\243?MbZ\251\330\313\330\277M\000\206\351\242\302\277\277\'\000\213Idk\347\277\234\367\346\257(P\322\277\357d\253\316,\307\010@\271*l+\027\376\321?dD\310N\244;\342\277\2768\263\036a\204d\277>\021\013\250\310\027\332\277\236\"\366\374E\007\246\277\373\2074\307s.\222?*V\341\016\214O\227\277\234\367\346\257(P\322\277p\004\371\253\3703\326\277\t^$r1y\302\277>\021\013\250\310\027\332\277\027\257;HT\267\350\277\0203\245\3169\326\255?T\363xM\224\207\343\277\271*l+\027\376\321?\222\325\251g\261\330\314\277\010^\354FD\003\352\277S\302VB\014\215\356\277\236\"\366\374E\007\246\277\304\210\000\364\"c\265\277\304\210\000\364\"c\265\277t3\013e\221p\317\277\315\031\347l\361\250\307\277\353\273\205o\021\021\305\277\260wHj\321@\312\277\004/\332\215\253\306\340?\'\000\213Idk\347\277M\304.i\016\325\301?\253H6\2618\004\321\277\314J\321L\214-\344\277)a]\326\n)\001@\t^$r1y\302\277M\000\206\351\242\302\277\277\\\263\251\252\350\177\327\277\022\200\361c\316\004\307?\253\331\034*\007J\323?Dq\007A\374\330\357\277p\004\371\253\3703\326\277\304\210\000\364\"c\265\277MbZ\251\330\313\330\277\\\263\251\252\350\177\327\277\206\273\037\331\271v\243?C\242\361 \227]\334?\372=\277P\274I\340\277\315\031\347l\361\250\307\277\353\273\205o\021\021\305\277\304\210\000\364\"c\265\277LU\025\342\334\032\264?\304\210\000\364\"c\265\277\216\246\227\256\030\234\323\277\206\273\037\331\271v\243?t3\013e\221p\317\277M\000\206\351\242\302\277\277\377\314=\371b3\260\277\2768\263\036a\204d\277LU\025\342\334\032\264?\022\036\035\244\230\373\335\277\377\314=\371b3\260\277/\300\273\246\270c\333\277\326\314\232\327\\z\276?\332j\376B\024\347\355\277\\\344\223\212\203\004\344?s\225\027P\264\357\340\277\021\021\330\334\234J\271?\236\"\366\374E\007\246\277\003\315\315\242\210G\337\277\315\031\347l\361\250\307\277\260wHj\321@\312\277\315\031\347l\361\250\307\277\\\263\251\252\350\177\327\277o\225\337$\307y\330?p\004\371\253\3703\326\277s\225\027P\264\357\340\277LU\025\342\334\032\264?\234\210\315(\367\225\324?\315\031\347l\361\250\307\277\234\210\315(\367\225\324?\222\325\251g\261\330\314\277>\021\013\250\310\027\332\277\236\"\366\374E\007\246\277\343\214;\213\213^\343?\306\352\234\210k\366\345?\216\246\227\256\030\234\323\277\353\273\205o\021\021\305\277\234\367\346\257(P\322\277\260wHj\321@\312\277\341\207<Z\366Z\031@\315\031\347l\361\250\307\277M\000\206\351\242\302\277\277o\225\337$\307y\330?\236\"\366\374E\007\246\277\373\2074\307s.\222?\\\263\251\252\350\177\327\277\206\273\037\331\271v\243?/\"\220f\356l\304?\236\"\366\374E\007\246\277\253H6\2618\004\321\277\364\335Ra\256\234\311?\211D\303\356\342\222\272\277dD\310N\244;\342\277\022\036\035\244\230\373\335\277\206\273\037\331\271v\243?\260wHj\321@\312\277p\004\371\253\3703\326\277E\242)L\204\323\344\277t3\013e\221p\317\277\206\273\037\331\271v\243?\010^\354FD\003\352\277*V\341\016\214O\227\277\216\246\227\256\030\234\323\277\\\263\251\252\350\177\327\277\353\273\205o\021\021\305\277\222\325\251g\261\330\314\277\343\214;\213\213^\343?\216\246\227\256\030\234\323\277\0203\245\3169\326\255?p\004\371\253\3703\326\277\022\200\361c\316\004\307?\271\231\025\\n\314\316?\326\314\232\327\\z\276?\\\263\251\252\350\177\327\277\t^$r1y\302\277\211D\303\356\342\222\272\277/\"\220f\356l\304?p\004\371\253\3703\326\277\304\210\000\364\"c\265\277\010^\354FD\003\352\277\\\263\251\252\350\177\327\277\377\314=\371b3\260\277\353\273\205o\021\021\305\277t3\013e\221p\317\277E\242)L\204\323\344\277\003\315\315\242\210G\337\277{U\020\202\033r\354?\371\014\235E4O\353\277E\242)L\204\323\344\277p\004\371\253\3703\326\277\373\2074\307s.\222?\216\246\227\256\030\234\323\277!ol\245\250\257\334\277M\000\206\351\242\302\277\277T\363xM\224\207\343\277\\\263\251\252\350\177\327\277\267\231M\207[B\347?M\304.i\016\325\301?\352\273MD$\233\354\277\353\273\205o\021\021\305\277\211D\303\356\342\222\272\277\216\246\227\256\030\234\323\277rd\365D,\365\353\277\334\233 N\234\341\342\277M\000\206\351\242\302\277\277\177UH\255\010\350\324\277\377\314=\371b3\260\277M\000\206\351\242\302\277\277MbZ\251\330\313\330\277>B\365\207c\234\346?\253H6\2618\004\321\277\177UH\255\010\350\324\277\t^$r1y\302\277/\"\220f\356l\304?\375\277\205$\322/%@\'\000\213Idk\347\277\222\325\251g\261\330\314\277>\021\013\250\310\027\332\277\021\021\330\334\234J\271?t3\013e\221p\317\277\177UH\255\010\350\324\277>\021\013\250\310\027\332\277\254\220W\316(\032\t@\\\263\251\252\350\177\327\277\021\021\330\334\234J\271?\234\210\315(\367\225\324?\373\2074\307s.\222?\260wHj\321@\312\277\022\036\035\244\230\373\335\277>\021\013\250\310\027\332\277\0203\245\3169\326\255?!ol\245\250\257\334\277\211D\303\356\342\222\272\277\365\335\212\214\233\022\342?*V\341\016\214O\227\277\222\325\251g\261\330\314\277t3\013e\221p\317\277\271\231\025\\n\314\316?\234\367\346\257(P\322\277\260wHj\321@\312\277\177\235i\312\370\375\014@\260wHj\321@\312\277\332j\376B\024\347\355\277rd\365D,\365\353\277\t^$r1y\302\277M\304.i\016\325\301?\234\367\346\257(P\322\277^\344a\325\376!\002@\t^$r1y\302\277\206\273\037\331\271v\243?\211D\303\356\342\222\272\277t3\013e\221p\317\277\315\031\347l\361\250\307\277\177UH\255\010\350\324\277\373\2074\307s.\222?\315\031\347l\361\250\307\277s\225\027P\264\357\340\277\2157~\'\347\341\325?\326\314\232\327\\z\276?\231\367|\317\266\367\007@/\300\273\246\270c\333\277\275\371\201K|y\345\277/\300\273\246\270c\333\277\353\354oO\254\225\341\277\\\263\251\252\350\177\327\277\253\331\034*\007J\323?M\000\206\351\242\302\277\2774Q\242\037\207\251\335?\253H6\2618\004\321\277\027\257;HT\267\350\277\315\031\347l\361\250\307\277\353\273\205o\021\021\305\277M\000\206\351\242\302\277\277\2157~\'\347\341\325?\236\"\366\374E\007\246\277\177UH\255\010\350\324\277p\004\371\253\3703\326\277\234\367\346\257(P\322\277\234\367\346\257(P\322\277\364\335Ra\256\234\311?\362 \027Yh}\032@\234\367\346\257(P\322\277p\004\371\253\3703\326\277\326\n\312~\363\257\357?\216\246\227\256\030\234\323\277\355\034 \321\312X\006@\353\273\205o\021\021\305\277\222\325\251g\261\330\314\277dD\310N\244;\342\277*V\341\016\214O\227\277\253H6\2618\004\321\277/\"\220f\356l\304?\353\273\205o\021\021\305\277\253H6\2618\004\321\277\315\031\347l\361\250\307\277\234\367\346\257(P\322\277t3\013e\221p\317\277p\004\371\253\3703\326\277\236\"\366\374E\007\246\2776Q\332Jt\037\346\2776Q\332Jt\037\346\277>\021\013\250\310\027\332\277\022\200\361c\316\004\307?r\225\342_{\303\023@*V\341\016\214O\227\277\377\314=\371b3\260\277\373\2074\307s.\222?\t^$r1y\302\277M\304.i\016\325\301?\271\231\025\\n\314\316?\353\273\205o\021\021\305\277\\\263\251\252\350\177\327\277\315\031\347l\361\250\307\277\253H6\2618\004\321\277\260wHj\321@\312\277M\223D\211sP\345?\234\367\346\257(P\322\277M\000\206\351\242\302\277\277\177UH\255\010\350\324\277\353\273\205o\021\021\305\277T\363xM\224\207\343\277\260wHj\321@\312\277\2768\263\036a\204d\277pdY\2575\272\377?\315\031\347l\361\250\307\277\003\315\315\242\210G\337\277\304\210\000\364\"c\265\277\304\210\000\364\"c\265\277\0203\245\3169\326\255?\353\354oO\254\225\341\277\222\325\251g\261\330\314\277s\225\027P\264\357\340\277\315{\273,\'\262\320?rd\365D,\365\353\277!ol\245\250\257\334\277Dq\007A\374\330\357\277\315\031\347l\361\250\307\277\021\021\330\334\234J\271?E\242)L\204\323\344\277\260wHj\321@\312\277\211D\303\356\342\222\272\277\315\031\347l\361\250\307\277\004/\332\215\253\306\340?\373\2074\307s.\222?\010^\354FD\003\352\277\234\367\346\257(P\322\277\353\273\205o\021\021\305\277t3\013e\221p\317\277\373\2074\307s.\222?\353\273\205o\021\021\305\277t3\013e\221p\317\277\2157~\'\347\341\325?Dq\007A\374\330\357\277\250H\376\205K\216\350?6Q\332Jt\037\346\277dD\310N\244;\342\277\377\314=\371b3\260\277>B\365\207c\234\346?\024\013AY\352S\032@\261\t\005\327\022\203\000@\236\"\366\374E\007\246\277dD\310N\244;\342\277\2768\263\036a\204d\277\222\325\251g\261\330\314\277\2768\263\036a\204d\277\t^$r1y\302\277MbZ\251\330\313\330\277\211D\303\356\342\222\272\277\315\031\347l\361\250\307\277\211D\303\356\342\222\272\277\022\200\361c\316\004\307?\353\273\205o\021\021\305\277\021\021\330\334\234J\271?\t^$r1y\302\277\0203\245\3169\326\255?\304\210\000\364\"c\265\277*V\341\016\214O\227\277\234\367\346\257(P\322\277\\\263\251\252\350\177\327\277*V\341\016\214O\227\277t3\013e\221p\317\277T\363xM\224\207\343\277R\363@\"\247\021\333?\315\031\347l\361\250\307\277\234\367\346\257(P\322\277\334\233 N\234\341\342\277\315\031\347l\361\250\307\277\004/\332\215\253\306\340?\372=\277P\274I\340\277\253H6\2618\004\321\277/\300\273\246\270c\333\277\004/\332\215\253\306\340?\353\273\205o\021\021\305\277M\000\206\351\242\302\277\277*V\341\016\214O\227\277\304\210\000\364\"c\265\277\353\354oO\254\225\341\277M\000\206\351\242\302\277\277p\004\371\253\3703\326\277\256\2502Jl\305\346\277M\000\206\351\242\302\277\277\364\335Ra\256\234\311?\260wHj\321@\312\277t3\013e\221p\317\277^\344/ z?\360\277\004/\332\215\253\306\340?\222\325\251g\261\330\314\277s\225\027P\264\357\340\277\222\325\251g\261\330\314\277\032\337\353\311rz\r@\003\026,Y\251h\032@\217\006\224GL]\351\277\236\"\366\374E\007\246\277M\000\206\351\242\302\277\277*V\341\016\214O\227\277\\\263\251\252\350\177\327\277\020\037\360\\W\256\026@/\"\220f\356l\304?\372=\277P\274I\340\277\353\273\205o\021\021\305\277/\300\273\246\270c\333\277p\004\371\253\3703\326\277\353\273\205o\021\021\305\277j\324B\264q\335\372?\253H6\2618\004\321\277LU\025\342\334\032\264?\253H6\2618\004\321\277C\242\361 \227]\334?\306\352\234\210k\366\345?\022\036\035\244\230\373\335\277\260wHj\321@\312\277\2768\263\036a\204d\277\211D\303\356\342\222\272\277\377\314=\371b3\260\277\235WG\263e\326\373?\377\314=\371b3\260\277s\225\027P\264\357\340\277\234\367\346\257(P\322\277\021\021\330\334\234J\271?|\2062\215\243l\341?/\"\220f\356l\304?\'\000\213Idk\347\277\234\367\346\257(P\322\277\177UH\255\010\350\324\277\314J\321L\214-\344\277\373\2074\307s.\222?E\242)L\204\323\344\277s\225\027P\264\357\340\277\271\231\025\\n\314\316?\253H6\2618\004\321\277MbZ\251\330\313\330\277\304\210\000\364\"c\265\277\353\273\205o\021\021\305\277o\225\337$\307y\330?\'\000\213Idk\347\277C\242\361 \227]\334?\\\263\251\252\350\177\327\277\004/\332\215\253\306\340?>\021\013\250\310\027\332\277\2648\024U\367u\036@T\363xM\224\207\343\277\\\263\251\252\350\177\327\277\253H6\2618\004\321\277\0203\245\3169\326\255?\211D\303\356\342\222\272\277/\361\245\206S\350\347?\271*l+\027\376\321?\334\233 N\234\341\342\277\177UH\255\010\350\324\277MbZ\251\330\313\330\277\260wHj\321@\312\277\222\325\251g\261\330\314\277\253H6\2618\004\321\277\003\315\315\242\210G\337\277o\225\337$\307y\330?\177UH\255\010\350\324\277%\000S\036w\365\336?T\363xM\224\207\343\277\216\246\227\256\030\234\323\277/\300\273\246\270c\333\277\304\210\000\364\"c\265\277\2768\263\036a\204d\277\'\000\213Idk\347\277*V\341\016\214O\227\277\211D\303\356\342\222\272\277\234\367\346\257(P\322\277\t^$r1y\302\277\275\371\201K|y\345\277\234\210\315(\367\225\324?\022\036\035\244\230\373\335\277\253H6\2618\004\321\277\222\325\251g\261\330\314\277\304\210\000\364\"c\265\277\022\036\035\244\230\373\335\277|\2062\215\243l\341?!ol\245\250\257\334\277\304\210\000\364\"c\265\277\315\031\347l\361\250\307\277\217\006\224GL]\351\277LU\025\342\334\032\264?p\004\371\253\3703\326\277\036p\330\270\251S\366?\222\325\251g\261\330\314\277M\000\206\351\242\302\277\277\334\233 N\234\341\342\277\245\000A\323d=\004@\304\210\000\364\"c\265\277T\363xM\224\207\343\277\177UH\255\010\350\324\277\271\231\025\\n\314\316?\217\006\224GL]\351\277\234\367\346\257(P\322\277\334\233 N\234\341\342\277t3\013e\221p\317\277t3\013e\221p\317\277\0203\245\3169\326\255?\353\273\205o\021\021\305\277\253H6\2618\004\321\277M\304.i\016\325\301?LU\025\342\334\032\264?\t^$r1y\302\277\253H6\2618\004\321\277\206\273\037\331\271v\243?\315\031\347l\361\250\307\277\315\031\347l\361\250\307\277MbZ\251\330\313\330\277\021\021\330\334\234J\271?M\000\206\351\242\302\277\277R\363@\"\247\021\333?\373\2074\307s.\222?\027\257;HT\267\350\277C\242\361 \227]\334?/\"\220f\356l\304?|\2062\215\243l\341?R\363@\"\247\021\333?\003\315\315\242\210G\337\277\353\273\205o\021\021\305\277T\363xM\224\207\343\277\022\200\361c\316\004\307?\334\233 N\234\341\342\277o\225\337$\307y\330?M\000\206\351\242\302\277\277\t^$r1y\302\277$\000\357\263m0\373?\234\367\346\257(P\322\277\315\031\347l\361\250\307\277\362|\352\264y7\372?MbZ\251\330\313\330\277\027\257;HT\267\350\277\306\352\234\210k\366\345?>\021\013\250\310\027\332\277\271\261\301]\341\336\025@\315\031\347l\361\250\307\277\326\314\232\327\\z\276?\353\273\205o\021\021\305\277LU\025\342\334\032\264?\372=\277P\274I\340\277\304\210\000\364\"c\265\277\275\371\201K|y\345\277\216\246\227\256\030\234\323\277p\004\371\253\3703\326\277\331\367%_2~\024@\027\257;HT\267\350\277\211D\303\356\342\222\272\277\353\354oO\254\225\341\277^\344/ z?\360\277LU\025\342\334\032\264?\253H6\2618\004\321\277t3\013e\221p\317\277t3\013e\221p\317\277\2768\263\036a\204d\277\177UH\255\010\350\324\277\\\263\251\252\350\177\327\277\271\231\025\\n\314\316?E\242)L\204\323\344\277dD\310N\244;\342\277\334\233 N\234\341\342\277MbZ\251\330\313\330\277/\300\273\246\270c\333\277>\021\013\250\310\027\332\277\236\"\366\374E\007\246\277>B\365\207c\234\346?4Q\242\037\207\251\335?/\"\220f\356l\304?\211D\303\356\342\222\272\277\004/\332\215\253\306\340?\260wHj\321@\312\277\177UH\255\010\350\324\277s\225\027P\264\357\340\277M\223D\211sP\345?\260wHj\321@\312\277\253H6\2618\004\321\277M\000\206\351\242\302\277\277\234\367\346\257(P\322\277\353\273\205o\021\021\305\277*V\341\016\214O\227\277\2768\263\036a\204d\277\236\"\366\374E\007\246\277\234\210\315(\367\225\324?\315{\273,\'\262\320?-\301\'\272\271\007\365?\253H6\2618\004\321\277{U\020\202\033r\354?p\004\371\253\3703\326\277LU\025\342\334\032\264?>\021\013\250\310\027\332\277\304\210\000\364\"c\265\277\027\257;HT\267\350\277>\021\013\250\310\027\332\277t3\013e\221p\317\277/\"\220f\356l\304?|\2062\215\243l\341?/\"\220f\356l\304?\021\021\330\334\234J\271?\211D\303\356\342\222\272\277\216\246\227\256\030\234\323\277/\300\273\246\270c\333\277`D\220#\267\305\331?\t^$r1y\302\277\353\273\205o\021\021\305\277\t^$r1y\302\277\315\031\347l\361\250\307\2774Q\242\037\207\251\335?T\363xM\224\207\343\277\377\314=\371b3\260\277\206\273\037\331\271v\243?p\004\371\253\3703\326\277\0203\245\3169\326\255?p\004\371\253\3703\326\277\253H6\2618\004\321\277/\300\273\246\270c\333\277\2768\263\036a\204d\277\0203\245\3169\326\255?\216\246\227\256\030\234\323\277\353\354oO\254\225\341\277\222\325\251g\261\330\314\277\260wHj\321@\312\277\236\"\366\374E\007\246\277!ol\245\250\257\334\277\222\325\251g\261\330\314\277>\021\013\250\310\027\332\277\227\307\227]_\010\026@\377\314=\371b3\260\277\2768\263\036a\204d\277!ol\245\250\257\334\277\201\265DF<\251\352\277\216\246\227\256\030\234\323\277\236\"\366\374E\007\246\277\260wHj\321@\312\277\353\273\205o\021\021\305\277\271\231\025\\n\314\316?*V\341\016\214O\227\277\275\371\201K|y\345\277\234\367\346\257(P\322\277MbZ\251\330\313\330\277\364\335Ra\256\234\311?Dq\007A\374\330\357\277\222\325\251g\261\330\314\277\216\246\227\256\030\234\323\277t3\013e\221p\317\277/\300\273\246\270c\333\277/\300\273\246\270c\333\277\315{\273,\'\262\320?\234\367\346\257(P\322\277\206\273\037\331\271v\243?\353\273\205o\021\021\305\277/\300\273\246\270c\333\277\234\367\346\257(P\322\277\206\273\037\331\271v\243?\035\314y_6+\024@\253H6\2618\004\321\277/\300\273\246\270c\333\277t3\013e\221p\317\277\234\367\346\257(P\322\277%\000S\036w\365\336?>\021\013\250\310\027\332\277/\300\273\246\270c\333\277\372=\277P\274I\340\277\253H6\2618\004\321\277\364\335Ra\256\234\311?M\000\206\351\242\302\277\277\001\3169\266\211\353\370?\372=\277P\274I\340\277!ol\245\250\257\334\277\234\210\315(\367\225\324?\326\314\232\327\\z\276?\253H6\2618\004\321\277\314J\321L\214-\344\277\253\331\034*\007J\323?s\225\027P\264\357\340\277\177UH\255\010\350\324\277\211D\303\356\342\222\272\277\326;\264^\2164\314?\353\273\205o\021\021\305\277\236\"\366\374E\007\246\277\316\356a[\2048\030@\273\341\246\3178\316\007@\234\210\315(\367\225\324?\353\273\205o\021\021\305\277M\304.i\016\325\301?\377\314=\371b3\260\277p\004\371\253\3703\326\277\326;\264^\2164\314?t\305\307\321\322\262\005@\003\315\315\242\210G\337\277LU\025\342\334\032\264?/\"\220f\356l\304?M\000\206\351\242\302\277\277\260wHj\321@\312\277\003\315\315\242\210G\337\277\003\315\315\242\210G\337\277\332j\376B\024\347\355\277\343\214;\213\213^\343?\\\263\251\252\350\177\327\277\260wHj\321@\312\277~\346.&\327-\327?/\300\273\246\270c\333\277\325;\354\211{\252\344?t3\013e\221p\317\277\352\273MD$\233\354\277\260wHj\321@\312\277M\304.i\016\325\301?\372=\277P\274I\340\277\364\335Ra\256\234\311?\236\"\366\374E\007\246\277\260wHj\321@\312\277/\300\273\246\270c\333\277^\263q\177\373\t\357?\260wHj\321@\312\277\222\325\251g\261\330\314\277M\304.i\016\325\301?\377\314=\371b3\260\277\304\210\000\364\"c\265\277\0203\245\3169\326\255?LU\025\342\334\032\264?\364\335Ra\256\234\311?\372=\277P\274I\340\277\377\314=\371b3\260\277t3\013e\221p\317\277\t^$r1y\302\277\334\233 N\234\341\342\277\373\2074\307s.\222?\222\325\251g\261\330\314\277\334\233 N\234\341\342\277\027\257;HT\267\350\277\372=\277P\274I\340\277\\\263\251\252\350\177\327\277\0203\245\3169\326\255?!ol\245\250\257\334\277\253H6\2618\004\321\277\271\231\025\\n\314\316?\260wHj\321@\312\277\362 \027Yh}\032@\271*l+\027\376\321?\353\273\205o\021\021\305\277\0203\245\3169\326\255?M\000\206\351\242\302\277\277\234\367\346\257(P\322\277LU\025\342\334\032\264?\\\263\251\252\350\177\327\277\315\031\347l\361\250\307\277\277)2\315\232<\n@t3\013e\221p\317\277\211D\303\356\342\222\272\277\177UH\255\010\350\324\277\253H6\2618\004\321\277\003\315\315\242\210G\337\277\373\2074\307s.\222?M\304.i\016\325\301?\2768\263\036a\204d\277\303\272\036\274\321\025\363?M\000\206\351\242\302\277\277\275\371\345\265\205>\371?~\346.&\327-\327?\326;\264^\2164\314?4Q\242\037\207\251\335?\203\026\027\323\342f\004@4Q\242\037\207\251\335?\216\246\227\256\030\234\323\277\222\325\251g\261\330\314\277s\225\027P\264\357\340\277\211D\303\356\342\222\272\277\326;\264^\2164\314?\216\246\227\256\030\234\323\277/\"\220f\356l\304?t3\013e\221p\317\277>\021\013\250\310\027\332\277\003\315\315\242\210G\337\2776Q\332Jt\037\346\277!ol\245\250\257\334\277\t^$r1y\302\277\326\314\232\327\\z\276?\t^$r1y\302\277\353\273\205o\021\021\305\277\\\263\251\252\350\177\327\277\234\210\315(\367\225\324?\304\210\000\364\"c\265\277\2768\263\036a\204d\277\256\250\226\264u\212\372?\326;\264^\2164\314?\304\210\000\364\"c\265\2776Q\332Jt\037\346\277\372=\277P\274I\340\277\304\210\000\364\"c\265\277!ol\245\250\257\334\277~\346.&\327-\327?\\\263\251\252\350\177\327\277\021\021\330\334\234J\271?\216\246\227\256\030\234\323\277!ol\245\250\257\334\277>\021\013\250\310\027\332\277!ol\245\250\257\334\277\022\036\035\244\230\373\335\277\275\371\201K|y\345\277dD\310N\244;\342\277!ol\245\250\257\334\277\\\263\251\252\350\177\327\277dD\310N\244;\342\277\010^\354FD\003\352\277\326\314\232\327\\z\276?\003\315\315\242\210G\337\277\353\273\205o\021\021\305\277\267\r\374^\260\247\024@\304\210\000\364\"c\265\277\022\200\361c\316\004\307?\206\273\037\331\271v\243?\271*l+\027\376\321?\t^$r1y\302\277MbZ\251\330\313\330\277\271\231\025\\n\314\316?\326\314\232\327\\z\276?%\000S\036w\365\336?\353\273\205o\021\021\305\277etx\320\302\376\006@*V\341\016\214O\227\277\2768\263\036a\204d\277\003\026,Y\251h\032@T\363xM\224\207\343\277\260wHj\321@\312\2776Q\332Jt\037\346\277\304\210\000\364\"c\265\277\304\210\000\364\"c\265\277\353\273\205o\021\021\305\277\206\273\037\331\271v\243?\211D\303\356\342\222\272\277\003\315\315\242\210G\337\277\2768\263\036a\204d\277T\363xM\224\207\343\277"
      }
    }
  }
}
node {
  name: "normalize_element/component_2"
  op: "Const"
  device: "/device:CPU:0"
  attr {
    key: "_output_shapes"
    value {
      list {
        shape {
          dim {
            size: 1087
          }
        }
      }
    }
  }
  attr {
    key: "dtype"
    value {
      type: DT_DOUBLE
    }
  }
  attr {
    key: "value"
    value {
      tensor {
        dtype: DT_DOUBLE
        tensor_shape {
          dim {
            size: 1087
          }
        }
        tensor_content: "N2r\253\227\346\344?\215{]\247\274|\357\277\\\367&\352 \326\363\277\027\220\251\222\347c\342\277s*\371\232d;\336\277\023NE\306\351&\260\277\203\222\326\367I,\305\277\037\376\306\004\242\331\355\277s*\371\232d;\336\277\203\222\326\367I,\305\277w\245b\330\034\026\355?\202\263\010\336\310J\366\277\213\210\251r\272\341\322?\3339r\313\304h\324\277\215{]\247\274|\357\277\206\r@5\002\007\344\277\315\024\213\214\245p\210\277X\372\306t\213\030\376?\322\205\003\035R\360\350\277!y0BZ\264\334?\202\263\010\336\310J\366\277\202\263\010\336\310J\366\277\203\222\326\367I,\305\277s*\371\232d;\336\277\3339r\313\304h\324\277)-\237\360\314,\350?\2159\371\332\276?\275\277\0236r;\256\247\364\277\260\2000b\2076\354\277\341\016\023`\266\377\360?\202\263\010\336\310J\366\277\260\2000b\2076\354\277\0236r;\256\247\364\277\2664\237\020\372\256\327\277*\320\307\016).\360?6;E\366xa\361\277wH\213\366x\027\365?\037\376\306\004\242\331\355\277\374>E\206\217\"\321\277\023NE\306\351&\260\277\346\305!\231\223\272\366?\341\016\023`\266\377\360?\203\222\326\367I,\305\277\0236r;\256\247\364\277\336\264\333\010}C\343?\021\346\255q5\310\r@\272\257\010N\262\211\346?\300\t@\245\353E\364?\202\263\010\336\310J\366\277\202\263\010\336\310J\366\277\225/\314U/\365\332\277\315\024\213\214\245p\210\277\364\212\326\327\034\252\345\277\235%\237\320\237\252\310?\0236r;\256\247\364\277\374>E\206\217\"\321\277\0236r;\256\247\364\277s*\371\232d;\336\277\231M^\261C\321\361?\225/\314U/\365\332\277j\203\326\267\357\'\326?\336\264\333\010}C\343?\023NE\306\351&\260\277\233\372\371\\`\257\000@\037\376\306\004\242\331\355\277\0236r;\256\247\364\277w\245b\330\034\026\355?\231M^\261C\321\361?)-\237\360\314,\350?\215{]\247\274|\357\277\010\313\364S^t\363?/\207\326G\006\351\365?j\203\326\267\357\'\326?\260\2000b\2076\354\277\203\222\326\367I,\305\277\231M^\261C\321\361?\202\263\010\336\310J\366\277/\207\326G\006\351\365?\203\222\326\367I,\305\277\214\323\027\234\351/\005@s*\371\232d;\336\277\341\016\023`\266\377\360?*\320\307\016).\360?\215{]\247\274|\357\277N2r\253\227\346\344?\272\257\010N\262\211\346?\355y\220G\0063\362\277!y0BZ\264\334?\341\016\023`\266\377\360?X\372\306t\213\030\376?Et\326w\225#\267?\215{]\247\274|\357\277\013\202\003\215;/\371?\010(\3145\002s\353?Et\326w\225#\267?\2664\237\020\372\256\327\277\203\222\326\367I,\305\277;\2100\202\264\270\313\277\202\263\010\336\310J\366\277\336\264\333\010}C\343?\312t\275\214;y\365\277\364\212\326\327\034\252\345\277\346\"\371z7\271\356?\231\2525\223\347\317\351?\346\"\371z7\271\356?\000t]\207\217\372\337?\312t\275\214;y\365\277\351|0\322pu\374?~\374\371\244\353\217\360\2776;E\366xa\361\277\023NE\306\351&\260\277Y\033\371Z\n7\317?\341\016\023`\266\377\360?\374>E\206\217\"\321\277\374>E\206\217\"\321\277z\377\231/V\322\372?\355y\220G\0063\362\277\235%\237\320\237\252\310?\244\270\333\230\223\004\363\277\2159\371\332\276?\275\277\250\022\023\360\314\300\340\277\2159\371\332\276?\275\277\231M^\261C\321\361?\3339r\313\304h\324\277\322\205\003\035R\360\350\277)-\237\360\314,\350?\000t]\207\217\372\337?\202\263\010\336\310J\366\277\010\313\364S^t\363?)-\237\360\314,\350?\203\222\326\367I,\305\277\023NE\306\351&\260\277j\203\326\267\357\'\326?\336\264\333\010}C\343?\236\004m\352 \214\367?C~\003\375$n\331?\241\273{#\376F\375?;\2100\202\264\270\313\277\241\273{#\376F\375?\000t]\207\217\372\337?\215{]\247\274|\357\277\346\305!\231\223\272\366?Et\326w\225#\267?s*\371\232d;\336\277Y\033\371Z\n7\317?\3339r\313\304h\324\277\225/\314U/\365\332\277B\003\232\277l\223\352\2776;E\366xa\361\277\000t]\207\217\372\337?\374>E\206\217\"\321\277N2r\253\227\346\344?\315\024\213\214\245p\210\277c\010mz7M\347\277o7Efb\240\341?\310w]\027\246\273\377?)-\237\360\314,\350?e\0276\250A\273\002@w\245b\330\034\026\355?\202\263\010\336\310J\366\277\231M^\261C\321\361?\\\367&\352 \326\363\277\322\205\003\035R\360\350\277\312t\275\214;y\365\277\302\300N\336\310\000\372?\202\263\010\336\310J\366\277\336\264\333\010}C\343?Y\033\371Z\n7\317?\000t]\207\217\372\337?\2664\237\020\372\256\327\277Et\326w\225#\267?wH\213\366x\027\365?\203\222\326\367I,\305\277\366\231\237\005\'\030\001@N2r\253\227\346\344?\346\305!\231\223\272\366?P\214\251\002\321\242\362?\231M^\261C\321\361?\203\222\326\367I,\305\277\346\"\371z7\271\356?\355y\220G\0063\362\277\260\2000b\2076\354\277\023NE\306\351&\260\277\213\210\251r\272\341\322?\300\021E\306\200\025\244?6;E\366xa\361\277!y0BZ\264\334?\312t\275\214;y\365\277\300\t@\245\353E\364?\203\222\326\367I,\305\277j\203\326\267\357\'\326?\206\r@5\002\007\344\277\244\270\333\230\223\004\363\277\250\022\023\360\314\300\340\277\202\263\010\336\310J\366\2772>\345\200\343\243\373?\231M^\261C\321\361?\013\202\003\215;/\371?\225/\314U/\365\332\277\202\263\010\336\310J\366\277w\245b\330\034\026\355?\374>E\206\217\"\321\277\322\205\003\035R\360\350\277w\245b\330\034\026\355?;\2100\202\264\270\313\277s*\371\232d;\336\277\\\367&\352 \326\363\277\312t\275\214;y\365\277\202\263\010\336\310J\366\277\235%\237\320\237\252\310?\231M^\261C\321\361?\213\210\251r\272\341\322?\340/EF5\036\302?\213\210\251r\272\341\322?\340/EF5\036\302?\236\004m\352 \214\367?\202\263\010\336\310J\366\277\260\2000b\2076\354\277\206\r@5\002\007\344\277\202\263\010\336\310J\366\277\374>E\206\217\"\321\277j\203\326\267\357\'\326?P\214\251\002\321\242\362?C~\003\375$n\331?\215{]\247\274|\357\277\231M^\261C\321\361?~\374\371\244\353\217\360\277\310w]\027\246\273\377?)-\237\360\314,\350?\346\305!\231\223\272\366?\202\263\010\336\310J\366\277\310w]\027\246\273\377?\202\263\010\336\310J\366\277\037\376\306\004\242\331\355\2776;E\366xa\361\277\225/\314U/\365\332\277\233\372\371\\`\257\000@N2r\253\227\346\344?j\203\326\267\357\'\326?\\\367&\352 \326\363\277\346\"\371z7\271\356?\202\263\010\336\310J\366\277\010(\3145\002s\353?B\003\232\277l\223\352\277*\320\307\016).\360?\244\270\333\230\223\004\363\277\213\210\251r\272\341\322?N2r\253\227\346\344?*\320\307\016).\360?;\2100\202\264\270\313\277\037\376\306\004\242\331\355\277\0236r;\256\247\364\277\000t]\207\217\372\337?o7Efb\240\341?\244\270\333\230\223\004\363\277;\2100\202\264\270\313\277\260\2000b\2076\354\277C~\003\375$n\331?\225/\314U/\365\332\277\202\263\010\336\310J\366\277\315\024\213\214\245p\210\277\374>E\206\217\"\321\277\0236r;\256\247\364\277\231M^\261C\321\361?\\\367&\352 \326\363\277\037\376\306\004\242\331\355\277\340/EF5\036\302?C~\003\375$n\331?j\203\326\267\357\'\326?\244\270\333\230\223\004\363\277\202\263\010\336\310J\366\277\300\t@\245\353E\364?\202\263\010\336\310J\366\277c\010mz7M\347\277\206\r@5\002\007\344\277\202\263\010\336\310J\366\277\010(\3145\002s\353?~\374\371\244\353\217\360\277\202\263\010\336\310J\366\277\202\263\010\336\310J\366\277\037\376\306\004\242\331\355\277\260\2000b\2076\354\277\250\022\023\360\314\300\340\277\215{]\247\274|\357\277\346\"\371z7\271\356?\202\263\010\336\310J\366\277~\374\371\244\353\217\360\277\244\270\333\230\223\004\363\277\322\205\003\035R\360\350\277\023NE\306\351&\260\277\235%\237\320\237\252\310?\250\022\023\360\314\300\340\277\260\2000b\2076\354\277\312t\275\214;y\365\277\023NE\306\351&\260\277\322\205\003\035R\360\350\277\322\205\003\035R\360\350\277\260\2000b\2076\354\277\203\222\326\367I,\305\277\000t]\207\217\372\337?\231\2525\223\347\317\351?\202\263\010\336\310J\366\277\244\270\333\230\223\004\363\277j\203\326\267\357\'\326?\260\2000b\2076\354\277o7Efb\240\341?\203\222\326\367I,\305\277\312t\275\214;y\365\277\260\2000b\2076\354\277\336\264\333\010}C\343?\355y\220G\0063\362\277\340/EF5\036\302?B\003\232\277l\223\352\277\225/\314U/\365\332\277\355y\220G\0063\362\277C~\003\375$n\331?s*\371\232d;\336\277\364\212\326\327\034\252\345\277)-\237\360\314,\350?\301\266\333P\010$\003@\202\263\010\336\310J\366\277\202\263\010\336\310J\366\277Et\326w\225#\267?\2159\371\332\276?\275\277\231\2525\223\347\317\351?SC\270;\256]\370?\023NE\306\351&\260\277\272\257\010N\262\211\346?\310w]\027\246\273\377?\202\263\010\336\310J\366\277\037\376\306\004\242\331\355\277\235%\237\320\237\252\310?)-\237\360\314,\350?\231M^\261C\321\361?\300\021E\306\200\025\244?\202\263\010\336\310J\366\277\\\367&\352 \326\363\277\374>E\206\217\"\321\277\202\263\010\336\310J\366\277\203\222\326\367I,\305\277\260\2000b\2076\354\277\346\305!\231\223\272\366?\202\263\010\336\310J\366\277\231\2525\223\347\317\351?\244\270\333\230\223\004\363\277\233\372\371\\`\257\000@\235%\237\320\237\252\310?\\\367&\352 \326\363\277\010(\3145\002s\353?\260\2000b\2076\354\277\231\2525\223\347\317\351?j\203\326\267\357\'\326?\202\263\010\336\310J\366\277w\245b\330\034\026\355?\0236r;\256\247\364\277@[T\264\231F\000@\2159\371\332\276?\275\277\206\r@5\002\007\344\277\260\2000b\2076\354\277\346\"\371z7\271\356?\374>E\206\217\"\321\277\215{]\247\274|\357\277\374>E\206\217\"\321\277\010\313\364S^t\363?j\203\326\267\357\'\326?\322\205\003\035R\360\350\277\206\r@5\002\007\344\277\\\367&\352 \326\363\277\202\263\010\336\310J\366\277\374>E\206\217\"\321\277\260\2000b\2076\354\277\364\212\326\327\034\252\345\277\2159\371\332\276?\275\277\231M^\261C\321\361?\231M^\261C\321\361?\231M^\261C\321\361?Et\326w\225#\267?\364\212\326\327\034\252\345\277\023NE\306\351&\260\277\023NE\306\351&\260\277\215{]\247\274|\357\277\010(\3145\002s\353?\231M^\261C\321\361?\355y\220G\0063\362\277\202\263\010\336\310J\366\277Y\033\371Z\n7\317?\013\202\003\215;/\371?\3339r\313\304h\324\277\374>E\206\217\"\321\277R9E\256\355\200\001@\322\205\003\035R\360\350\2776;E\366xa\361\277N2r\253\227\346\344?\235%\237\320\237\252\310?\244\270\333\230\223\004\363\277j\203\326\267\357\'\326?!y0BZ\264\334?~\374\371\244\353\217\360\277)-\237\360\314,\350?\260\2000b\2076\354\2776;E\366xa\361\277;\2100\202\264\270\313\277\023NE\306\351&\260\277\0236r;\256\247\364\277\374>E\206\217\"\321\277\236\004m\352 \214\367?\2664\237\020\372\256\327\277\037\376\306\004\242\331\355\277\215{]\247\274|\357\277\215{]\247\274|\357\277\231M^\261C\321\361?\300\t@\245\353E\364?s*\371\232d;\336\277z\377\231/V\322\372?\340/EF5\036\302?\300\021E\306\200\025\244?\010(\3145\002s\353?\231M^\261C\321\361?B\003\232\277l\223\352\277\023NE\306\351&\260\277\231M^\261C\321\361?\\\367&\352 \326\363\277\203\222\326\367I,\305\277*\320\307\016).\360?\0236r;\256\247\364\277\341\016\023`\266\377\360?\213\210\251r\272\341\322?\235%\237\320\237\252\310?\374>E\206\217\"\321\277\037\376\306\004\242\331\355\277\0236r;\256\247\364\277o7Efb\240\341?\315\024\213\214\245p\210\277\272\257\010N\262\211\346?\231M^\261C\321\361?\256\330\352V\264\351\001@\315\024\213\214\245p\210\277\202\263\010\336\310J\366\277w\245b\330\034\026\355?6;E\366xa\361\277z\377\231/V\322\372?\215{]\247\274|\357\277\213\210\251r\272\341\322?;\2100\202\264\270\313\277\0236r;\256\247\364\277c\010mz7M\347\277\235%\237\320\237\252\310?)-\237\360\314,\350?\202\263\010\336\310J\366\277\225/\314U/\365\332\277\241\273{#\376F\375?\346\305!\231\223\272\366?o7Efb\240\341?y\365&\242\225\365\003@\202\263\010\336\310J\366\277;\2100\202\264\270\313\277\244\270\333\230\223\004\363\277\236\004m\352 \214\367?\206\r@5\002\007\344\277\\\367&\352 \326\363\277\272\257\010N\262\211\346?s*\371\232d;\336\277\202\263\010\336\310J\366\277SC\270;\256]\370?\346\"\371z7\271\356?\010(\3145\002s\353?\202\263\010\336\310J\366\277w\245b\330\034\026\355?\202\263\010\336\310J\366\277\203\222\326\367I,\305\277Y\033\371Z\n7\317?\231M^\261C\321\361?!y0BZ\264\334?\302\300N\336\310\000\372?\231M^\261C\321\361?\202\263\010\336\310J\366\277\027\220\251\222\347c\342\277\3339r\313\304h\324\277\203\222\326\367I,\305\277\202\263\010\336\310J\366\277\203\222\326\367I,\305\277s*\371\232d;\336\277\3339r\313\304h\324\277!y0BZ\264\334?/\207\326G\006\351\365?\213\210\251r\272\341\322?\231M^\261C\321\361?\225/\314U/\365\332\277\300\t@\245\353E\364?/\207\326G\006\351\365?\364\212\326\327\034\252\345\2776;E\366xa\361\277\0236r;\256\247\364\277!y0BZ\264\334?\235%\237\320\237\252\310?\346\305!\231\223\272\366?wH\213\366x\027\365?/\207\326G\006\351\365?\023NE\306\351&\260\277\202\263\010\336\310J\366\277\202\263\010\336\310J\366\277\341\016\023`\266\377\360?\0236r;\256\247\364\277~\374\371\244\353\217\360\277\203\222\326\367I,\305\277\300\021E\306\200\025\244?X\372\306t\213\030\376?\231M^\261C\321\361?6;E\366xa\361\277\206\r@5\002\007\344\277\236\004m\352 \214\367?\341\016\023`\266\377\360?\202\263\010\336\310J\366\277\272\257\010N\262\211\346?\374>E\206\217\"\321\277)-\237\360\314,\350?\336\264\333\010}C\343?\2159\371\332\276?\275\277\010(\3145\002s\353?\233\372\371\\`\257\000@\340/EF5\036\302?\013\202\003\215;/\371?\202\263\010\336\310J\366\277\340/EF5\036\302?\203\222\326\367I,\305\277\2664\237\020\372\256\327\277\341\016\023`\266\377\360?w\245b\330\034\026\355?SC\270;\256]\370?\2159\371\332\276?\275\277\202\263\010\336\310J\366\277\3339r\313\304h\324\277\010(\3145\002s\353?\3339r\313\304h\324\277\260\2000b\2076\354\277\206\r@5\002\007\344\277\315\024\213\214\245p\210\277\3339r\313\304h\324\277\013\202\003\215;/\371?\206\r@5\002\007\344\277\037\376\306\004\242\331\355\277\215{]\247\274|\357\277\2664\237\020\372\256\327\277\250\022\023\360\314\300\340\277j\203\326\267\357\'\326?\023NE\306\351&\260\277\037\376\306\004\242\331\355\277\231M^\261C\321\361?\301\266\333P\010$\003@\203\222\326\367I,\305\277Y\033\371Z\n7\317?Y\033\371Z\n7\317?Et\326w\225#\267?\203\222\326\367I,\305\277\010\313\364S^t\363?\231M^\261C\321\361?\202\263\010\336\310J\366\277\tx\220\377zR\002@Y\033\371Z\n7\317?~\374\371\244\353\217\360\277\213\210\251r\272\341\322?\231M^\261C\321\361?\322\205\003\035R\360\350\277\203\222\326\367I,\305\277\231M^\261C\321\361?\035V\201\371\316\214\003@\241\273{#\376F\375?~\374\371\244\353\217\360\2776;E\366xa\361\277\341\016\023`\266\377\360?\340/EF5\036\302?wH\213\366x\027\365?\355y\220G\0063\362\277Y\033\371Z\n7\317?\244\270\333\230\223\004\363\277B\003\232\277l\223\352\277\235%\237\320\237\252\310?c\010mz7M\347\277\0236r;\256\247\364\277\336\264\333\010}C\343?\336\264\333\010}C\343?\215{]\247\274|\357\277\213\210\251r\272\341\322?B\003\232\277l\223\352\277!y0BZ\264\334?\336\264\333\010}C\343?\000t]\207\217\372\337?s*\371\232d;\336\277\0209\022\306\030\352\376?\231\2525\223\347\317\351?/\207\326G\006\351\365?\231M^\261C\321\361?\235%\237\320\237\252\310?*\320\307\016).\360?\231M^\261C\321\361?\231M^\261C\321\361?\310w]\027\246\273\377?wH\213\366x\027\365?\202\263\010\336\310J\366\277\364\212\326\327\034\252\345\277N2r\253\227\346\344?C~\003\375$n\331?B\003\232\277l\223\352\277\241\273{#\376F\375?)-\237\360\314,\350?\2664\237\020\372\256\327\277Et\326w\225#\267?6;E\366xa\361\277\231M^\261C\321\361?\2664\237\020\372\256\327\277\213\210\251r\272\341\322?j\203\326\267\357\'\326?\202\263\010\336\310J\366\277\272\257\010N\262\211\346?\235%\237\320\237\252\310?\300\021E\306\200\025\244?\340/EF5\036\302?\2159\371\332\276?\275\277\202\263\010\336\310J\366\277c\010mz7M\347\277c\010mz7M\347\277N2r\253\227\346\344?\231M^\261C\321\361?04r\363\"\307\004@X\372\306t\213\030\376?\235%\237\320\237\252\310?Et\326w\225#\267?N2r\253\227\346\344?j\203\326\267\357\'\326?C~\003\375$n\331?\231\2525\223\347\317\351?\340/EF5\036\302?Y\033\371Z\n7\317?\203\222\326\367I,\305\277\364\212\326\327\034\252\345\277Y\033\371Z\n7\317?Y\033\371Z\n7\317?)-\237\360\314,\350?!y0BZ\264\334?j\203\326\267\357\'\326?Et\326w\225#\267?s*\371\232d;\336\277\\\367&\352 \326\363\277\010(\3145\002s\353?\346\"\371z7\271\356?\302\300N\336\310\000\372?\340/EF5\036\302?c\010mz7M\347\277\231M^\261C\321\361?\302\300N\336\310\000\372?\2664\237\020\372\256\327\277\000t]\207\217\372\337?\225/\314U/\365\332\277\300\021E\306\200\025\244?\355y\220G\0063\362\277\300\021E\306\200\025\244?\250\022\023\360\314\300\340\277\0236r;\256\247\364\277\\\367&\352 \326\363\277\0236r;\256\247\364\277N2r\253\227\346\344?;\2100\202\264\270\313\277\231\2525\223\347\317\351?\0209\022\306\030\352\376?)-\237\360\314,\350?B\003\232\277l\223\352\277\231\2525\223\347\317\351?\300\t@\245\353E\364?\340/EF5\036\302?s*\371\232d;\336\277\315\024\213\214\245p\210\277\322\205\003\035R\360\350\277\364\212\326\327\034\252\345\277\013\202\003\215;/\371?\010(\3145\002s\353?\260\2000b\2076\354\277\027\220\251\222\347c\342\277\215{]\247\274|\357\277\037\376\306\004\242\331\355\277\235%\237\320\237\252\310?\010\313\364S^t\363?\346\"\371z7\271\356?\250\022\023\360\314\300\340\277w\245b\330\034\026\355?\364\212\326\327\034\252\345\277\215{]\247\274|\357\277\0236r;\256\247\364\277~\374\371\244\353\217\360\277\340/EF5\036\302?\3339r\313\304h\324\277\023NE\306\351&\260\277\3339r\313\304h\324\277P\214\251\002\321\242\362?N2r\253\227\346\344?Et\326w\225#\267?wH\213\366x\027\365?/\207\326G\006\351\365?\355y\220G\0063\362\277R9E\256\355\200\001@\202\263\010\336\310J\366\277\364\212\326\327\034\252\345\277\322\205\003\035R\360\350\277\000t]\207\217\372\337?\203\222\326\367I,\305\277\341\016\023`\266\377\360?\203\222\326\367I,\305\277X\372\306t\213\030\376?\203\222\326\367I,\305\277Et\326w\225#\267?\272\257\010N\262\211\346?\244\270\333\230\223\004\363\277\231M^\261C\321\361?)-\237\360\314,\350?\355y\220G\0063\362\277\206\r@5\002\007\344\277\260\2000b\2076\354\277\2664\237\020\372\256\327\277\250\022\023\360\314\300\340\277\203\222\326\367I,\305\277\231M^\261C\321\361?c\010mz7M\347\277\202\263\010\336\310J\366\277\202\263\010\336\310J\366\277s*\371\232d;\336\277\213\210\251r\272\341\322?\225/\314U/\365\332\277\315\024\213\214\245p\210\277P\214\251\002\321\242\362?\027\220\251\222\347c\342\277\301\266\333P\010$\003@6;E\366xa\361\277\2159\371\332\276?\275\277\322\205\003\035R\360\350\277\231M^\261C\321\361?\0236r;\256\247\364\277\235%\237\320\237\252\310?\010(\3145\002s\353?\037\376\306\004\242\331\355\277\3339r\313\304h\324\277\225/\314U/\365\332\277\340/EF5\036\302?\300\021E\306\200\025\244?j\203\326\267\357\'\326?\\\367&\352 \326\363\277)-\237\360\314,\350?\202\263\010\336\310J\366\277\315\024\213\214\245p\210\277)-\237\360\314,\350?\336\264\333\010}C\343?\000t]\207\217\372\337?\023NE\306\351&\260\277\340/EF5\036\302?\2159\371\332\276?\275\277\231\2525\223\347\317\351?\202\263\010\336\310J\366\277\260\2000b\2076\354\277\202\263\010\336\310J\366\277\202\263\010\336\310J\366\277\322\205\003\035R\360\350\277\355y\220G\0063\362\277\\\367&\352 \326\363\277\235%\237\320\237\252\310?\235%\237\320\237\252\310?\023NE\306\351&\260\277\235%\237\320\237\252\310?\202\263\010\336\310J\366\277\374>E\206\217\"\321\277\310w]\027\246\273\377?~\374\371\244\353\217\360\277\346\"\371z7\271\356?\206\r@5\002\007\344\277\202\263\010\336\310J\366\277\202\263\010\336\310J\366\277Et\326w\225#\267?\231M^\261C\321\361?\340/EF5\036\302?~\374\371\244\353\217\360\277\3339r\313\304h\324\277\231M^\261C\321\361?P\214\251\002\321\242\362?\235%\237\320\237\252\310?\0236r;\256\247\364\277\037\376\306\004\242\331\355\277SC\270;\256]\370?\037\376\306\004\242\331\355\277o7Efb\240\341?)-\237\360\314,\350?\233\372\371\\`\257\000@P\214\251\002\321\242\362?\202\263\010\336\310J\366\277\233\372\371\\`\257\000@N2r\253\227\346\344?\231M^\261C\321\361?\3339r\313\304h\324\277C~\003\375$n\331?\213\210\251r\272\341\322?\215{]\247\274|\357\277\202\263\010\336\310J\366\277\302\300N\336\310\000\372?~\374\371\244\353\217\360\277\010\313\364S^t\363?\202\263\010\336\310J\366\277/\207\326G\006\351\365?*\320\307\016).\360?\364\212\326\327\034\252\345\277\215{]\247\274|\357\277)-\237\360\314,\350?c\010mz7M\347\277\231\2525\223\347\317\351?C~\003\375$n\331?\0236r;\256\247\364\277\231M^\261C\321\361?~\374\371\244\353\217\360\277\312t\275\214;y\365\277\336\264\333\010}C\343?\010\313\364S^t\363?\0236r;\256\247\364\277\231M^\261C\321\361?\202\263\010\336\310J\366\277\215{]\247\274|\357\277\202\263\010\336\310J\366\277;\2100\202\264\270\313\277\023NE\306\351&\260\277\3339r\313\304h\324\277\322\205\003\035R\360\350\277\\\367&\352 \326\363\277\202\263\010\336\310J\366\277N2r\253\227\346\344?\310w]\027\246\273\377?Et\326w\225#\267?\202\263\010\336\310J\366\277\202\263\010\336\310J\366\277e\0276\250A\273\002@\202\263\010\336\310J\366\277\244\270\333\230\223\004\363\277\340/EF5\036\302?\\\367&\352 \326\363\277\2159\371\332\276?\275\277\203\222\326\367I,\305\277\236\004m\352 \214\367?\2664\237\020\372\256\327\277\340/EF5\036\302?\215{]\247\274|\357\277;\2100\202\264\270\313\277\202\263\010\336\310J\366\277\0236r;\256\247\364\2776;E\366xa\361\277o7Efb\240\341?\0236r;\256\247\364\277\202\263\010\336\310J\366\277\0236r;\256\247\364\277\0236r;\256\247\364\277\312t\275\214;y\365\277\023NE\306\351&\260\277\250\022\023\360\314\300\340\277\215{]\247\274|\357\277\203\222\326\367I,\305\277\202\263\010\336\310J\366\277\010(\3145\002s\353?\260\2000b\2076\354\277\202\263\010\336\310J\366\277\322\205\003\035R\360\350\277\\\367&\352 \326\363\277\233\372\371\\`\257\000@\2664\237\020\372\256\327\277\2159\371\332\276?\275\277\346\"\371z7\271\356?!y0BZ\264\334?\355y\220G\0063\362\277\2159\371\332\276?\275\277\231M^\261C\321\361?;\2100\202\264\270\313\277\355y\220G\0063\362\277\213\210\251r\272\341\322?s*\371\232d;\336\277\206\r@5\002\007\344\277\202\263\010\336\310J\366\277y\365&\242\225\365\003@\0236r;\256\247\364\277\341\016\023`\266\377\360?\203\222\326\367I,\305\277\203\222\326\367I,\305\277\202\263\010\336\310J\366\277\010(\3145\002s\353?\3339r\313\304h\324\277\3339r\313\304h\324\277)-\237\360\314,\350?\231M^\261C\321\361?\312t\275\214;y\365\277\341\016\023`\266\377\360?\374>E\206\217\"\321\277\202\263\010\336\310J\366\277\3339r\313\304h\324\277\202\263\010\336\310J\366\277\231M^\261C\321\361?z\377\231/V\322\372?\\\367&\352 \326\363\277\341\016\023`\266\377\360?\244\270\333\230\223\004\363\277\000t]\207\217\372\337?Y\033\371Z\n7\317?\023NE\306\351&\260\277\260\2000b\2076\354\277\023NE\306\351&\260\277Y\033\371Z\n7\317?N2r\253\227\346\344?\310w]\027\246\273\377?B\003\232\277l\223\352\277P\214\251\002\321\242\362?\231M^\261C\321\361?\322\205\003\035R\360\350\277\2159\371\332\276?\275\277z\377\231/V\322\372?\235%\237\320\237\252\310?\0209\022\306\030\352\376?Y\033\371Z\n7\317?\010(\3145\002s\353?Et\326w\225#\267?\202\263\010\336\310J\366\277\250\022\023\360\314\300\340\277\322\205\003\035R\360\350\277\037\376\306\004\242\331\355\277\202\263\010\336\310J\366\277\2159\371\332\276?\275\277\225/\314U/\365\332\277\346\"\371z7\271\356?\202\263\010\336\310J\366\277Y\033\371Z\n7\317?Y\033\371Z\n7\317?\310w]\027\246\273\377?N2r\253\227\346\344?\202\263\010\336\310J\366\277Y\033\371Z\n7\317?\260\2000b\2076\354\277\310w]\027\246\273\377?\213\210\251r\272\341\322?z\377\231/V\322\372?\312t\275\214;y\365\277/\207\326G\006\351\365?\340/EF5\036\302?w\245b\330\034\026\355?\250\022\023\360\314\300\340\277!y0BZ\264\334?Y\033\371Z\n7\317?\260\2000b\2076\354\277c\010mz7M\347\277\374>E\206\217\"\321\277;\2100\202\264\270\313\277\202\263\010\336\310J\366\277\312t\275\214;y\365\277\010(\3145\002s\353?\231M^\261C\321\361?\203\222\326\367I,\305\277\374>E\206\217\"\321\277\336\264\333\010}C\343?Y\033\371Z\n7\317?\027\220\251\222\347c\342\277\202\263\010\336\310J\366\277N2r\253\227\346\344?6;E\366xa\361\277\366\231\237\005\'\030\001@o7Efb\240\341?)-\237\360\314,\350?@[T\264\231F\000@\\\367&\352 \326\363\277\215{]\247\274|\357\277\346\305!\231\223\272\366?\203\222\326\367I,\305\277\225/\314U/\365\332\277\213\210\251r\272\341\322?*\320\307\016).\360?\250\022\023\360\314\300\340\277wH\213\366x\027\365?N2r\253\227\346\344?N2r\253\227\346\344?\231M^\261C\321\361?\300\021E\306\200\025\244?\2664\237\020\372\256\327\277\037\376\306\004\242\331\355\277\336\264\333\010}C\343?!y0BZ\264\334?*\320\307\016).\360?\312t\275\214;y\365\277\0236r;\256\247\364\277\000t]\207\217\372\337?\\\367&\352 \326\363\277\241\273{#\376F\375?\300\021E\306\200\025\244?\231M^\261C\321\361?\374>E\206\217\"\321\277Y\033\371Z\n7\317?\010\313\364S^t\363?c\010mz7M\347\277o7Efb\240\341?N2r\253\227\346\344?w\245b\330\034\026\355?\355y\220G\0063\362\277\236\004m\352 \214\367?6;E\366xa\361\277\312t\275\214;y\365\277\231M^\261C\321\361?\346\305!\231\223\272\366?\203\222\326\367I,\305\277\202\263\010\336\310J\366\277~\374\371\244\353\217\360\277!y0BZ\264\334?\202\263\010\336\310J\366\277\202\263\010\336\310J\366\277\023NE\306\351&\260\277\010(\3145\002s\353?/\207\326G\006\351\365?\202\263\010\336\310J\366\277SC\270;\256]\370?\231M^\261C\321\361?\300\t@\245\353E\364?\010(\3145\002s\353?\023NE\306\351&\260\277\2159\371\332\276?\275\277\2664\237\020\372\256\327\277\346\"\371z7\271\356?\300\t@\245\353E\364?\213\210\251r\272\341\322?B\003\232\277l\223\352\277\0209\022\306\030\352\376?;\2100\202\264\270\313\277\336\264\333\010}C\343?\364\212\326\327\034\252\345\277\244\270\333\230\223\004\363\277\300\021E\306\200\025\244?\2664\237\020\372\256\327\277\231M^\261C\321\361?\241\273{#\376F\375?s*\371\232d;\336\277)-\237\360\314,\350?\2159\371\332\276?\275\277\315\024\213\214\245p\210\277s*\371\232d;\336\277\225/\314U/\365\332\277;\2100\202\264\270\313\277Y\033\371Z\n7\317?\312t\275\214;y\365\277\215{]\247\274|\357\277\213\210\251r\272\341\322?\336\264\333\010}C\343?\3339r\313\304h\324\277s*\371\232d;\336\277\364\212\326\327\034\252\345\277\272\257\010N\262\211\346?\037\376\306\004\242\331\355\277\315\024\213\214\245p\210\277\244\270\333\230\223\004\363\277/\207\326G\006\351\365?C~\003\375$n\331?\023NE\306\351&\260\277;\2100\202\264\270\313\277\235%\237\320\237\252\310?\203\222\326\367I,\305\277\312t\275\214;y\365\277\231M^\261C\321\361?j\203\326\267\357\'\326?\\\367&\352 \326\363\277\341\016\023`\266\377\360?B\003\232\277l\223\352\277\231M^\261C\321\361?\260\2000b\2076\354\277;\2100\202\264\270\313\277\000t]\207\217\372\337?\027\220\251\222\347c\342\277y\365&\242\225\365\003@j\203\326\267\357\'\326?2>\345\200\343\243\373?\312t\275\214;y\365\277wH\213\366x\027\365?\0236r;\256\247\364\277\312t\275\214;y\365\277\233\372\371\\`\257\000@\250\022\023\360\314\300\340\277P\214\251\002\321\242\362?\037\376\306\004\242\331\355\277\203\222\326\367I,\305\277\355y\220G\0063\362\277\\\367&\352 \326\363\277P\214\251\002\321\242\362?\023NE\306\351&\260\277\215{]\247\274|\357\277\235%\237\320\237\252\310?)-\237\360\314,\350?"
      }
    }
  }
}
node {
  name: "normalize_element/component_3"
  op: "Const"
  device: "/device:CPU:0"
  attr {
    key: "_output_shapes"
    value {
      list {
        shape {
          dim {
            size: 1087
          }
        }
      }
    }
  }
  attr {
    key: "dtype"
    value {
      type: DT_DOUBLE
    }
  }
  attr {
    key: "value"
    value {
      tensor {
        dtype: DT_DOUBLE
        tensor_shape {
          dim {
            size: 1087
          }
        }
